{
  "version": "1.0",
  "truncation": null,
  "padding": null,
  "added_tokens": [
    {
      "id": 0,
      "content": "<|PAD|>",
      "single_word": false,
      "lstrip": false,
      "rstrip": false,
      "normalized": false,
      "special": true
    },
    {
      "id": 1,
      "content": "<|direct|>",
      "single_word": false,
      "lstrip": false,
      "rstrip": false,
      "normalized": false,
      "special": true
    },
    {
      "id": 2,
      "content": "<|cot|>",
      "single_word": false,
      "lstrip": false,
      "rstrip": false,
      "normalized": false,
      "special": true
    },
    {
      "id": 3,
      "content": "<|noisy|>",
      "single_word": false,
      "lstrip": false,
      "rstrip": false,
      "normalized": false,
      "special": true
    },
    {
      "id": 4,
      "content": "<|synth|>",
      "single_word": false,
      "lstrip": false,
      "rstrip": false,
      "normalized": false,
      "special": true
    },
    {
      "id": 5,
      "content": "<|endoftext|>",
      "single_word": false,
      "lstrip": false,
      "rstrip": false,
      "normalized": false,
      "special": true
    },
    {
      "id": 6,
      "content": "<|im_start|>",
      "single_word": false,
      "lstrip": false,
      "rstrip": false,
      "normalized": false,
      "special": true
    },
    {
      "id": 7,
      "content": "<|im_end|>",
      "single_word": false,
      "lstrip": false,
      "rstrip": false,
      "normalized": false,
      "special": true
    },
    {
      "id": 8,
      "content": "<|object_ref_start|>",
      "single_word": false,
      "lstrip": false,
      "rstrip": false,
      "normalized": false,
      "special": true
    },
    {
      "id": 9,
      "content": "<|object_ref_end|>",
      "single_word": false,
      "lstrip": false,
      "rstrip": false,
      "normalized": false,
      "special": true
    },
    {
      "id": 10,
      "content": "<|box_start|>",
      "single_word": false,
      "lstrip": false,
      "rstrip": false,
      "normalized": false,
      "special": true
    },
    {
      "id": 11,
      "content": "<|box_end|>",
      "single_word": false,
      "lstrip": false,
      "rstrip": false,
      "normalized": false,
      "special": true
    },
    {
      "id": 12,
      "content": "<|quad_start|>",
      "single_word": false,
      "lstrip": false,
      "rstrip": false,
      "normalized": false,
      "special": true
    },
    {
      "id": 13,
      "content": "<|quad_end|>",
      "single_word": false,
      "lstrip": false,
      "rstrip": false,
      "normalized": false,
      "special": true
    },
    {
      "id": 14,
      "content": "<|vision_start|>",
      "single_word": false,
      "lstrip": false,
      "rstrip": false,
      "normalized": false,
      "special": true
    },
    {
      "id": 15,
      "content": "<|vision_end|>",
      "single_word": false,
      "lstrip": false,
      "rstrip": false,
      "normalized": false,
      "special": true
    },
    {
      "id": 16,
      "content": "<|vision_pad|>",
      "single_word": false,
      "lstrip": false,
      "rstrip": false,
      "normalized": false,
      "special": true
    },
    {
      "id": 17,
      "content": "<|image_pad|>",
      "single_word": false,
      "lstrip": false,
      "rstrip": false,
      "normalized": false,
      "special": true
    },
    {
      "id": 18,
      "content": "<|video_pad|>",
      "single_word": false,
      "lstrip": false,
      "rstrip": false,
      "normalized": false,
      "special": true
    },
    {
      "id": 19,
      "content": "<|fim_prefix|>",
      "single_word": false,
      "lstrip": false,
      "rstrip": false,
      "normalized": false,
      "special": true
    },
    {
      "id": 20,
      "content": "<|fim_middle|>",
      "single_word": false,
      "lstrip": false,
      "rstrip": false,
      "normalized": false,
      "special": true
    },
    {
      "id": 21,
      "content": "<|fim_suffix|>",
      "single_word": false,
      "lstrip": false,
      "rstrip": false,
      "normalized": false,
      "special": true
    },
    {
      "id": 22,
      "content": "<|fim_pad|>",
      "single_word": false,
      "lstrip": false,
      "rstrip": false,
      "normalized": false,
      "special": true
    },
    {
      "id": 23,
      "content": "<|repo_name|>",
      "single_word": false,
      "lstrip": false,
      "rstrip": false,
      "normalized": false,
      "special": true
    },
    {
      "id": 24,
      "content": "<|file_sep|>",
      "single_word": false,
      "lstrip": false,
      "rstrip": false,
      "normalized": false,
      "special": true
    },
    {
      "id": 25,
      "content": "<tool_call>",
      "single_word": false,
      "lstrip": false,
      "rstrip": false,
      "normalized": false,
      "special": true
    },
    {
      "id": 26,
      "content": "</tool_call>",
      "single_word": false,
      "lstrip": false,
      "rstrip": false,
      "normalized": false,
      "special": true
    },
    {
      "id": 27,
      "content": "<tool_response>",
      "single_word": false,
      "lstrip": false,
      "rstrip": false,
      "normalized": false,
      "special": true
    },
    {
      "id": 28,
      "content": "</tool_response>",
      "single_word": false,
      "lstrip": false,
      "rstrip": false,
      "normalized": false,
      "special": true
    },
    {
      "id": 29,
      "content": "<think>",
      "single_word": false,
      "lstrip": false,
      "rstrip": false,
      "normalized": false,
      "special": true
    },
    {
      "id": 30,
      "content": "</think>",
      "single_word": false,
      "lstrip": false,
      "rstrip": false,
      "normalized": false,
      "special": true
    }
  ],
  "normalizer": {
    "type": "NFC"
  },
  "pre_tokenizer": {
    "type": "Sequence",
    "pretokenizers": [
      {
        "type": "Split",
        "pattern": {
          "Regex": "(?i:'s|'t|'re|'ve|'m|'ll|'d)|[^\\r\\n\\p{L}\\p{N}]?\\p{L}+|\\p{N}| ?[^\\s\\p{L}\\p{N}]+[\\r\\n]*|\\s*[\\r\\n]+|\\s+(?!\\S)|\\s+"
        },
        "behavior": "Isolated",
        "invert": false
      },
      {
        "type": "ByteLevel",
        "add_prefix_space": false,
        "trim_offsets": false,
        "use_regex": false
      }
    ]
  },
  "post_processor": {
    "type": "ByteLevel",
    "add_prefix_space": false,
    "trim_offsets": false,
    "use_regex": false
  },
  "decoder": {
    "type": "ByteLevel",
    "add_prefix_space": false,
    "trim_offsets": false,
    "use_regex": false
  },
  "model": {
    "type": "BPE",
    "dropout": null,
    "unk_token": null,
    "continuing_subword_prefix": null,
    "end_of_word_suffix": null,
    "fuse_unk": false,
    "byte_fallback": false,
    "ignore_merges": false,
    "vocab": {
      "<|PAD|>": 0,
      "<|direct|>": 1,
      "<|cot|>": 2,
      "<|noisy|>": 3,
      "<|synth|>": 4,
      "<|endoftext|>": 5,
      "<|im_start|>": 6,
      "<|im_end|>": 7,
      "<|object_ref_start|>": 8,
      "<|object_ref_end|>": 9,
      "<|box_start|>": 10,
      "<|box_end|>": 11,
      "<|quad_start|>": 12,
      "<|quad_end|>": 13,
      "<|vision_start|>": 14,
      "<|vision_end|>": 15,
      "<|vision_pad|>": 16,
      "<|image_pad|>": 17,
      "<|video_pad|>": 18,
      "<|fim_prefix|>": 19,
      "<|fim_middle|>": 20,
      "<|fim_suffix|>": 21,
      "<|fim_pad|>": 22,
      "<|repo_name|>": 23,
      "<|file_sep|>": 24,
      "<tool_call>": 25,
      "</tool_call>": 26,
      "<tool_response>": 27,
      "</tool_response>": 28,
      "<think>": 29,
      "</think>": 30,
      "!": 31,
      "\"": 32,
      "#": 33,
      "$": 34,
      "%": 35,
      "&": 36,
      "'": 37,
      "(": 38,
      ")": 39,
      "*": 40,
      "+": 41,
      ",": 42,
      "-": 43,
      ".": 44,
      "/": 45,
      "0": 46,
      "1": 47,
      "2": 48,
      "3": 49,
      "4": 50,
      "5": 51,
      "6": 52,
      "7": 53,
      "8": 54,
      "9": 55,
      ":": 56,
      ";": 57,
      "<": 58,
      "=": 59,
      ">": 60,
      "?": 61,
      "@": 62,
      "A": 63,
      "B": 64,
      "C": 65,
      "D": 66,
      "E": 67,
      "F": 68,
      "G": 69,
      "H": 70,
      "I": 71,
      "J": 72,
      "K": 73,
      "L": 74,
      "M": 75,
      "N": 76,
      "O": 77,
      "P": 78,
      "Q": 79,
      "R": 80,
      "S": 81,
      "T": 82,
      "U": 83,
      "V": 84,
      "W": 85,
      "X": 86,
      "Y": 87,
      "Z": 88,
      "[": 89,
      "\\": 90,
      "]": 91,
      "^": 92,
      "_": 93,
      "`": 94,
      "a": 95,
      "b": 96,
      "c": 97,
      "d": 98,
      "e": 99,
      "f": 100,
      "g": 101,
      "h": 102,
      "i": 103,
      "j": 104,
      "k": 105,
      "l": 106,
      "m": 107,
      "n": 108,
      "o": 109,
      "p": 110,
      "q": 111,
      "r": 112,
      "s": 113,
      "t": 114,
      "u": 115,
      "v": 116,
      "w": 117,
      "x": 118,
      "y": 119,
      "z": 120,
      "{": 121,
      "|": 122,
      "}": 123,
      "~": 124,
      "¡": 125,
      "¢": 126,
      "£": 127,
      "¤": 128,
      "¥": 129,
      "¦": 130,
      "§": 131,
      "¨": 132,
      "©": 133,
      "ª": 134,
      "«": 135,
      "¬": 136,
      "®": 137,
      "¯": 138,
      "°": 139,
      "±": 140,
      "²": 141,
      "³": 142,
      "´": 143,
      "µ": 144,
      "¶": 145,
      "·": 146,
      "¸": 147,
      "¹": 148,
      "º": 149,
      "»": 150,
      "¼": 151,
      "½": 152,
      "¾": 153,
      "¿": 154,
      "Â": 155,
      "Ã": 156,
      "Ä": 157,
      "Å": 158,
      "Æ": 159,
      "Ç": 160,
      "È": 161,
      "É": 162,
      "Ê": 163,
      "Ë": 164,
      "Ì": 165,
      "Í": 166,
      "Î": 167,
      "Ï": 168,
      "Ð": 169,
      "Ñ": 170,
      "Ò": 171,
      "Ó": 172,
      "Ô": 173,
      "Õ": 174,
      "Ö": 175,
      "×": 176,
      "Ø": 177,
      "Ù": 178,
      "Ú": 179,
      "Û": 180,
      "Ü": 181,
      "Ý": 182,
      "Þ": 183,
      "ß": 184,
      "à": 185,
      "á": 186,
      "â": 187,
      "ã": 188,
      "ä": 189,
      "å": 190,
      "æ": 191,
      "ç": 192,
      "è": 193,
      "é": 194,
      "ê": 195,
      "ë": 196,
      "ì": 197,
      "í": 198,
      "î": 199,
      "ï": 200,
      "ð": 201,
      "ó": 202,
      "ô": 203,
      "Ā": 204,
      "ā": 205,
      "Ă": 206,
      "ă": 207,
      "Ą": 208,
      "ą": 209,
      "Ć": 210,
      "ć": 211,
      "Ĉ": 212,
      "ĉ": 213,
      "Ċ": 214,
      "ċ": 215,
      "Č": 216,
      "č": 217,
      "Ď": 218,
      "ď": 219,
      "Đ": 220,
      "đ": 221,
      "Ē": 222,
      "ē": 223,
      "Ĕ": 224,
      "ĕ": 225,
      "Ė": 226,
      "ė": 227,
      "Ę": 228,
      "ę": 229,
      "Ě": 230,
      "ě": 231,
      "Ĝ": 232,
      "ĝ": 233,
      "Ğ": 234,
      "ğ": 235,
      "Ġ": 236,
      "ġ": 237,
      "Ģ": 238,
      "ģ": 239,
      "Ĥ": 240,
      "ĥ": 241,
      "Ħ": 242,
      "ħ": 243,
      "Ĩ": 244,
      "ĩ": 245,
      "Ī": 246,
      "ī": 247,
      "Ĭ": 248,
      "ĭ": 249,
      "Į": 250,
      "į": 251,
      "İ": 252,
      "ı": 253,
      "Ĳ": 254,
      "ĳ": 255,
      "Ĵ": 256,
      "ĵ": 257,
      "Ķ": 258,
      "ķ": 259,
      "ĸ": 260,
      "Ĺ": 261,
      "ĺ": 262,
      "Ļ": 263,
      "ļ": 264,
      "Ľ": 265,
      "ľ": 266,
      "Ŀ": 267,
      "ŀ": 268,
      "Ł": 269,
      "ł": 270,
      "Ń": 271,
      "er": 272,
      "an": 273,
      "on": 274,
      "ti": 275,
      "re": 276,
      "Ġi": 277,
      "en": 278,
      "Ġs": 279,
      "Ġc": 280,
      "es": 281,
      "al": 282,
      "Ġo": 283,
      "at": 284,
      "Ġw": 285,
      "Ġp": 286,
      "or": 287,
      "Ġf": 288,
      "ed": 289,
      "ng": 290,
      "Ġb": 291,
      "ar": 292,
      "Ġan": 293,
      "Ġm": 294,
      "Ġin": 295,
      "Ġd": 296,
      "tion": 297,
      "to": 298,
      "is": 299,
      "ou": 300,
      "Ġof": 301,
      "as": 302,
      "ing": 303,
      "le": 304,
      "Ġh": 305,
      "ic": 306,
      "Ġand": 307,
      "it": 308,
      "Ġto": 309,
      "ro": 310,
      "ac": 311,
      "ent": 312,
      "Ġre": 313,
      "Ġe": 314,
      "Ġ\\": 315,
      "om": 316,
      "ly": 317,
      "Ġn": 318,
      "ve": 319,
      "Ġl": 320,
      "ec": 321,
      "Ġis": 322,
      "et": 323,
      "Th": 324,
      "Ġ-": 325,
      "ation": 326,
      "ol": 327,
      "hat": 328,
      "ĊĊ": 329,
      "tr": 330,
      "Ġg": 331,
      "us": 332,
      "il": 333,
      "ad": 334,
      "ig": 335,
      "ow": 336,
      "te": 337,
      "am": 338,
      "ce": 339,
      "id": 340,
      "The": 341,
      "ter": 342,
      "ur": 343,
      "ul": 344,
      "os": 345,
      "her": 346,
      "that": 347,
      "Ġcon": 348,
      "ab": 349,
      "Ġthat": 350,
      "Ġfor": 351,
      "ts": 352,
      "ver": 353,
      "ir": 354,
      "un": 355,
      "Ġbe": 356,
      "ot": 357,
      "are": 358,
      "ut": 359,
      "ĠI": 360,
      "Ġwh": 361,
      "ith": 362,
      "qu": 363,
      "Ġ=": 364,
      ".ĊĊ": 365,
      "if": 366,
      "ap": 367,
      "el": 368,
      "ĠA": 369,
      "ĠS": 370,
      "Ġon": 371,
      "Ġpro": 372,
      "Ġ+": 373,
      "Ġwith": 374,
      "ai": 375,
      "Ġcom": 376,
      "tic": 377,
      "ĠĠ": 378,
      "Ġas": 379,
      "ay": 380,
      "ag": 381,
      "ate": 382,
      "um": 383,
      "Ġy": 384,
      "'s": 385,
      "ri": 386,
      "uc": 387,
      "ĠC": 388,
      "ers": 389,
      "ain": 390,
      "ĠThe": 391,
      "ment": 392,
      "res": 393,
      "Ġr": 394,
      "Ġ(": 395,
      "nd": 396,
      "Ġex": 397,
      "Ġv": 398,
      "Ġare": 399,
      "Ġor": 400,
      "Ġ$": 401,
      "od": 402,
      "Ġst": 403,
      "all": 404,
      "Ġde": 405,
      "igh": 406,
      "ess": 407,
      "ting": 408,
      "iv": 409,
      "ity": 410,
      "im": 411,
      "and": 412,
      "ke": 413,
      "op": 414,
      "ĠW": 415,
      "Ġtr": 416,
      "rom": 417,
      "ld": 418,
      "ion": 419,
      "ĠM": 420,
      "ĠB": 421,
      "rac": 422,
      "ore": 423,
      "Ġyou": 424,
      "Ġsp": 425,
      "ch": 426,
      "Ġch": 427,
      "ĠH": 428,
      "ally": 429,
      "Ġwas": 430,
      "Ġby": 431,
      "Ġun": 432,
      "**": 433,
      "Ġfrom": 434,
      "Ġac": 435,
      "tive": 436,
      "Ġcomp": 437,
      "Ġit": 438,
      "ĠP": 439,
      "Ġsh": 440,
      "em": 441,
      "his": 442,
      "out": 443,
      "end": 444,
      "Ġ\"": 445,
      "Ġcan": 446,
      "Ġne": 447,
      "hi": 448,
      "ure": 449,
      "ne": 450,
      "}{": 451,
      "pl": 452,
      "est": 453,
      "st": 454,
      "this": 455,
      "oc": 456,
      "Ġthis": 457,
      "ight": 458,
      "Ġat": 459,
      "ther": 460,
      "ence": 461,
      "Ġle": 462,
      "Ġab": 463,
      "Ġhis": 464,
      "ant": 465,
      "up": 466,
      "ies": 467,
      "frac": 468,
      "Ġhe": 469,
      "ĠL": 470,
      "ations": 471,
      "ould": 472,
      "ave": 473,
      "ud": 474,
      "Ġ\\(": 475,
      "Ġse": 476,
      "og": 477,
      "Ġli": 478,
      "ang": 479,
      "ĠE": 480,
      "mp": 481,
      "ĠTh": 482,
      "gh": 483,
      "Ġal": 484,
      "ĠD": 485,
      "tions": 486,
      "ific": 487,
      "app": 488,
      "se": 489,
      "ical": 490,
      "ill": 491,
      "tor": 492,
      "ich": 493,
      "ĠF": 494,
      ".Ċ": 495,
      "ial": 496,
      "han": 497,
      "ĠR": 498,
      "ff": 499,
      "ans": 500,
      "tim": 501,
      "Ġpar": 502,
      "Ġqu": 503,
      "Ġdis": 504,
      "ey": 505,
      "Ġen": 506,
      "ach": 507,
      "Ġwe": 508,
      "ns": 509,
      "ys": 510,
      "Ġwor": 511,
      "our": 512,
      "ough": 513,
      "ĠG": 514,
      "fer": 515,
      "Ġk": 516,
      "iz": 517,
      "ard": 518,
      "eir": 519,
      "heir": 520,
      "their": 521,
      "wer": 522,
      "Ġtheir": 523,
      "ated": 524,
      "ome": 525,
      "ĠT": 526,
      "ms": 527,
      "Ġpl": 528,
      "ous": 529,
      "Ġhave": 530,
      "ese": 531,
      "age": 532,
      "xt": 533,
      "ub": 534,
      "av": 535,
      "ak": 536,
      "ort": 537,
      "nt": 538,
      "à¤": 539,
      "ĠN": 540,
      "Ġnot": 541,
      "Ġar": 542,
      "ib": 543,
      "ue": 544,
      "Ġmore": 545,
      "ame": 546,
      "ary": 547,
      "Ġfi": 548,
      "Ġspec": 549,
      "ty": 550,
      "Ġus": 551,
      "per": 552,
      "Ġad": 553,
      "ere": 554,
      "ound": 555,
      "Ġabout": 556,
      "estion": 557,
      "Ġj": 558,
      "ie": 559,
      ":Ċ": 560,
      "Ġres": 561,
      "Ġapp": 562,
      "++": 563,
      "ition": 564,
      "Ġme": 565,
      "Ġwhich": 566,
      "ign": 567,
      "hey": 568,
      "they": 569,
      "ish": 570,
      "ance": 571,
      "ong": 572,
      "Ġthey": 573,
      "Ġcons": 574,
      "Ġinc": 575,
      "ct": 576,
      "ber": 577,
      "Ġdif": 578,
      "Ġbut": 579,
      "Ġdo": 580,
      "orm": 581,
      "low": 582,
      "text": 583,
      "ect": 584,
      "Ġev": 585,
      "Ġ'": 586,
      "ine": 587,
      "der": 588,
      "ist": 589,
      "Ġall": 590,
      "ide": 591,
      "Ġlike": 592,
      "ĠJ": 593,
      "ire": 594,
      "Ġper": 595,
      "hr": 596,
      "ks": 597,
      "ress": 598,
      "Ġhas": 599,
      "tu": 600,
      "Ġcl": 601,
      "enti": 602,
      "Ġrel": 603,
      "Ġbet": 604,
      "ĠO": 605,
      "Ġstr": 606,
      "than": 607,
      "ose": 608,
      "ase": 609,
      "we": 610,
      "ass": 611,
      "ates": 612,
      "ens": 613,
      "able": 614,
      "Ġthan": 615,
      "Ġinter": 616,
      "ll": 617,
      "ĠThis": 618,
      "Ġwhen": 619,
      "Ġman": 620,
      "ear": 621,
      "Ġpre": 622,
      "ple": 623,
      "Ġbec": 624,
      "Ġans": 625,
      "Ġdiffer": 626,
      "tain": 627,
      "ost": 628,
      "Ġind": 629,
      "Ġinf": 630,
      "ia": 631,
      "Ġwould": 632,
      "Ġother": 633,
      "Ġnum": 634,
      "Ġgo": 635,
      "Ġfac": 636,
      "cess": 637,
      "ater": 638,
      "aw": 639,
      "iven": 640,
      "ge": 641,
      "here": 642,
      "vel": 643,
      "iti": 644,
      "âĢ": 645,
      "Ġits": 646,
      "ative": 647,
      "ces": 648,
      "ents": 649,
      "ular": 650,
      "Ġ\\)": 651,
      "Ġspecific": 652,
      "ell": 653,
      "duc": 654,
      "Ġanswer": 655,
      "Ġcomm": 656,
      "hese": 657,
      "these": 658,
      "Ġthese": 659,
      "Ġimp": 660,
      "Ġro": 661,
      "ail": 662,
      "uch": 663,
      "Ġhow": 664,
      "tical": 665,
      "\\)": 666,
      "hen": 667,
      "ile": 668,
      "ween": 669,
      "Ġte": 670,
      "Ġher": 671,
      "ack": 672,
      "ath": 673,
      "Ġone": 674,
      "Ġbetween": 675,
      "ons": 676,
      "ĠĠĠĠ": 677,
      "\\[": 678,
      "aus": 679,
      "tur": 680,
      "Ġgr": 681,
      "ari": 682,
      "ite": 683,
      "Ġpos": 684,
      "Ġx": 685,
      "rt": 686,
      "yste": 687,
      "ust": 688,
      "ast": 689,
      "Ġrep": 690,
      "tw": 691,
      "Ġquestion": 692,
      "Ġpri": 693,
      "oth": 694,
      "Ġcomple": 695,
      "ond": 696,
      "thr": 697,
      "ive": 698,
      "Ġinto": 699,
      "'t": 700,
      "Ġ\\]": 701,
      "Ġà": 702,
      "Ġthr": 703,
      "tin": 704,
      "ci": 705,
      "ĠU": 706,
      "ace": 707,
      "Ġsyste": 708,
      "ves": 709,
      "Ġout": 710,
      "Ġover": 711,
      "Ġthrough": 712,
      "Ġmo": 713,
      "Ġtw": 714,
      "Ġtim": 715,
      "af": 716,
      "ments": 717,
      "Ġfun": 718,
      "ating": 719,
      "put": 720,
      "ever": 721,
      "Ġwho": 722,
      "Ġsome": 723,
      "ok": 724,
      "Ġwhat": 725,
      "Ġwere": 726,
      "Ġyour": 727,
      "olog": 728,
      "qrt": 729,
      "Ġwhere": 730,
      "ĠIn": 731,
      "Ġcre": 732,
      "ian": 733,
      "Ġfol": 734,
      "Ġreg": 735,
      "Ġtrans": 736,
      "ree": 737,
      "ake": 738,
      "ep": 739,
      "ual": 740,
      "Ġco": 741,
      "Ġappro": 742,
      "ĠK": 743,
      "Ġther": 744,
      "Ġval": 745,
      "ug": 746,
      "ice": 747,
      "ord": 748,
      "irst": 749,
      "Ġwork": 750,
      "Ġexp": 751,
      "ind": 752,
      "ati": 753,
      "Ġrem": 754,
      "Ġwhile": 755,
      "one": 756,
      "',": 757,
      "Ġfollow": 758,
      "Ġso": 759,
      "Ġdes": 760,
      "Ġpo": 761,
      "ational": 762,
      "sqrt": 763,
      "ĠY": 764,
      ").": 765,
      "Ġpol": 766,
      "Ġno": 767,
      "row": 768,
      "Ġwill": 769,
      "ility": 770,
      "Ġrec": 771,
      "ĠØ": 772,
      "Ġpe": 773,
      "Ġform": 774,
      "upp": 775,
      "Ġdec": 776,
      "art": 777,
      "Ġhad": 778,
      "ory": 779,
      "Ġinv": 780,
      "Ġdifferent": 781,
      "Ġtwo": 782,
      "Ġsign": 783,
      "so": 784,
      "hem": 785,
      "Ġeff": 786,
      "oun": 787,
      "les": 788,
      "Ġgen": 789,
      "Ġag": 790,
      "Ġdet": 791,
      "now": 792,
      "mi": 793,
      "them": 794,
      "Ġter": 795,
      "nal": 796,
      "Ġthem": 797,
      "ather": 798,
      "Ġneed": 799,
      "Ġprov": 800,
      "Ġ&": 801,
      "Ġup": 802,
      "lec": 803,
      "ft": 804,
      "owever": 805,
      "Ġgiven": 806,
      "Ġequ": 807,
      "ays": 808,
      "Ġnumber": 809,
      "ps": 810,
      "lud": 811,
      "Ġins": 812,
      "ten": 813,
      "Ġpartic": 814,
      "ble": 815,
      "ution": 816,
      "hing": 817,
      "vers": 818,
      "ning": 819,
      "act": 820,
      "uring": 821,
      "Ġfirst": 822,
      "What": 823,
      "ause": 824,
      "lish": 825,
      "ople": 826,
      "Ġthere": 827,
      "Ġop": 828,
      "gr": 829,
      "velop": 830,
      "erv": 831,
      "very": 832,
      "mer": 833,
      "(-": 834,
      "Ġalso": 835,
      "ased": 836,
      "Ġcol": 837,
      "ood": 838,
      "Ġif": 839,
      "Ġrequ": 840,
      "ip": 841,
      "Ġcomplex": 842,
      "Ġsub": 843,
      "à¦": 844,
      "Ġmet": 845,
      "Ġdevelop": 846,
      "ities": 847,
      "++++": 848,
      "Let": 849,
      "Ġfe": 850,
      "),": 851,
      "ild": 852,
      "Ġsec": 853,
      "Ġinclud": 854,
      "Ġboth": 855,
      "ĠLet": 856,
      "Ġpeople": 857,
      "ult": 858,
      "ĠHe": 859,
      "Ġph": 860,
      "typ": 861,
      "Ġfind": 862,
      "Ġapproach": 863,
      "Ġ\\\\": 864,
      "Ġsignific": 865,
      "ĠWhat": 866,
      "ned": 867,
      "Ġtime": 868,
      "enc": 869,
      "ãģ": 870,
      "ox": 871,
      "Ġknow": 872,
      "tal": 873,
      "con": 874,
      "gi": 875,
      "ven": 876,
      "fic": 877,
      "Ġtyp": 878,
      "Ġsuch": 879,
      "Ġsc": 880,
      "fi": 881,
      "Ġfollowing": 882,
      "Ġmod": 883,
      "Ġbeen": 884,
      "Ġshe": 885,
      "right": 886,
      "Ġhim": 887,
      "Ġam": 888,
      "Ġnew": 889,
      "hn": 890,
      "ss": 891,
      "Ġfactor": 892,
      "Ġdoes": 893,
      "Ġproduc": 894,
      "air": 895,
      "arr": 896,
      "$,": 897,
      "ĠV": 898,
      "entence": 899,
      "olve": 900,
      "Ġsystem": 901,
      "nce": 902,
      "Ġeach": 903,
      "ulti": 904,
      "ions": 905,
      "ible": 906,
      "erson": 907,
      "Ġsim": 908,
      "Ġass": 909,
      "Ġ\\]ĊĊ": 910,
      "Ġsignificant": 911,
      "lic": 912,
      "Ġsm": 913,
      "cc": 914,
      "ction": 915,
      "Ġdi": 916,
      "ider": 917,
      "ric": 918,
      "Ġpres": 919,
      "Ġinte": 920,
      "ade": 921,
      "reat": 922,
      "Ġprocess": 923,
      "form": 924,
      "Ġrepres": 925,
      "ears": 926,
      "int": 927,
      "Ġmay": 928,
      "Ø§": 929,
      "Ġbl": 930,
      "In": 931,
      "tec": 932,
      "ders": 933,
      "}\\": 934,
      "Ġcor": 935,
      "Ġlo": 936,
      "ark": 937,
      "ges": 938,
      "its": 939,
      "Qu": 940,
      "Ġ,": 941,
      "tro": 942,
      "igi": 943,
      "Ġmi": 944,
      "^{": 945,
      "Ġparticular": 946,
      "ful": 947,
      "Ġaf": 948,
      "Ġmain": 949,
      "Ġget": 950,
      "'m": 951,
      "ange": 952,
      "hip": 953,
      "à¸": 954,
      "itive": 955,
      "Ġob": 956,
      "vie": 957,
      "ise": 958,
      "lu": 959,
      "Ġremain": 960,
      "atic": 961,
      "ether": 962,
      "li": 963,
      "ob": 964,
      "ted": 965,
      "hin": 966,
      "ors": 967,
      "Ġmany": 968,
      "Ġfr": 969,
      "Ġ$\\": 970,
      "ax": 971,
      "Ġmost": 972,
      "ĠIt": 973,
      "old": 974,
      "ivid": 975,
      "..": 976,
      "olution": 977,
      "me": 978,
      "à®": 979,
      "--": 980,
      "Ġ\\\\Ċ": 981,
      "Ġduring": 982,
      "Ġafter": 983,
      "Ġunder": 984,
      "ized": 985,
      "als": 986,
      "itions": 987,
      "Ġcent": 988,
      "}Ċ": 989,
      "atter": 990,
      "Ġstud": 991,
      "fore": 992,
      "ness": 993,
      "Ġany": 994,
      "ower": 995,
      "Ġim": 996,
      "ved": 997,
      "Ġhel": 998,
      "ick": 999,
      "Ġcould": 1000,
      "Ġacc": 1001,
      "Ġdid": 1002,
      "Ġbo": 1003,
      "ues": 1004,
      "Ġdep": 1005,
      "cep": 1006,
      "Ġmulti": 1007,
      "Ġbecause": 1008,
      "Ġmy": 1009,
      "nswer": 1010,
      "ince": 1011,
      "aking": 1012,
      "left": 1013,
      "}$": 1014,
      "Ġbeing": 1015,
      "à´": 1016,
      "Ġgener": 1017,
      "hough": 1018,
      "irc": 1019,
      "though": 1020,
      "Ġvari": 1021,
      "Ġmon": 1022,
      "Ġsoc": 1023,
      "gan": 1024,
      "tand": 1025,
      "be": 1026,
      "ĠĊ": 1027,
      "elf": 1028,
      "Ġunders": 1029,
      "Ġid": 1030,
      "Ġonly": 1031,
      "titu": 1032,
      "hy": 1033,
      "Ġke": 1034,
      "ger": 1035,
      "erm": 1036,
      "Ġresp": 1037,
      "Ġdire": 1038,
      "à¥": 1039,
      "àª": 1040,
      "ism": 1041,
      "à°": 1042,
      "(x": 1043,
      "Ġadd": 1044,
      "ample": 1045,
      "Ġuse": 1046,
      "?Ċ": 1047,
      "ited": 1048,
      "_{": 1049,
      "red": 1050,
      "Ġcoun": 1051,
      "wor": 1052,
      "Ġhigh": 1053,
      "then": 1054,
      "Ġcontr": 1055,
      "Ġbr": 1056,
      "Ġhistor": 1057,
      "Ġleg": 1058,
      "ateg": 1059,
      "Ġrequire": 1060,
      "Ġpop": 1061,
      "Ġsur": 1062,
      "Ġrather": 1063,
      "Ġrelations": 1064,
      "ences": 1065,
      "Ġchar": 1066,
      "ry": 1067,
      "Ġexpl": 1068,
      "Question": 1069,
      "Ġconf": 1070,
      "Ġref": 1071,
      "ability": 1072,
      "rit": 1073,
      ")/": 1074,
      "ature": 1075,
      "arch": 1076,
      "Ġstruc": 1077,
      "rop": 1078,
      "Ġz": 1079,
      "Ġinvol": 1080,
      "ological": 1081,
      "Ġlar": 1082,
      "Ġconsider": 1083,
      "ically": 1084,
      "Ġsmall": 1085,
      "'re": 1086,
      "ask": 1087,
      "Ġsentence": 1088,
      "ects": 1089,
      "cul": 1090,
      "Ġdem": 1091,
      "aff": 1092,
      "ture": 1093,
      "min": 1094,
      "anc": 1095,
      "Ġcond": 1096,
      "Ġcap": 1097,
      "Ġvalue": 1098,
      "Ġbro": 1099,
      "ective": 1100,
      "ross": 1101,
      "Ġest": 1102,
      "aid": 1103,
      "This": 1104,
      "Ġunderstand": 1105,
      "conom": 1106,
      "Ġsupp": 1107,
      "arly": 1108,
      "Ġ.": 1109,
      "au": 1110,
      "Ġà¤": 1111,
      "Ġmed": 1112,
      "ÛĮ": 1113,
      "tural": 1114,
      "Ġoper": 1115,
      "Ġsame": 1116,
      "Ġthen": 1117,
      "gin": 1118,
      "ami": 1119,
      "Ġactu": 1120,
      "Ġeven": 1121,
      "ren": 1122,
      "iss": 1123,
      "Ġinflu": 1124,
      "bers": 1125,
      "blem": 1126,
      "Ġprac": 1127,
      "ures": 1128,
      "ount": 1129,
      "Ġeconom": 1130,
      "Ġlead": 1131,
      "Ġem": 1132,
      "land": 1133,
      "Ġthough": 1134,
      "Ġmight": 1135,
      "Ġmin": 1136,
      "hile": 1137,
      "ied": 1138,
      "ĠÙ": 1139,
      "Ġlong": 1140,
      "Ġser": 1141,
      "wn": 1142,
      "tle": 1143,
      "Ġloc": 1144,
      "king": 1145,
      "ablish": 1146,
      "ters": 1147,
      "Ġcommon": 1148,
      "Ġmake": 1149,
      "Ġbu": 1150,
      "ife": 1151,
      "Ġinform": 1152,
      "alcul": 1153,
      "bi": 1154,
      "ĠSt": 1155,
      "Ġfactors": 1156,
      "ving": 1157,
      "Ġconc": 1158,
      "Ġpoli": 1159,
      "alt": 1160,
      "However": 1161,
      "Ġtrad": 1162,
      "ases": 1163,
      "{\\": 1164,
      ".\"": 1165,
      "cd": 1166,
      "ĠCh": 1167,
      "Ġsug": 1168,
      "echan": 1169,
      "Ġstate": 1170,
      "Ġset": 1171,
      "ĠSh": 1172,
      "Ġjust": 1173,
      "Ġincluding": 1174,
      "Ġexper": 1175,
      "Ġap": 1176,
      "own": 1177,
      "ward": 1178,
      "Ġsch": 1179,
      "Answer": 1180,
      "Ġtec": 1181,
      "cri": 1182,
      "Ġshould": 1183,
      "Ġmechan": 1184,
      "ern": 1185,
      "Ġpart": 1186,
      "Ġste": 1187,
      "Ġestablish": 1188,
      "ew": 1189,
      "truc": 1190,
      "ential": 1191,
      "tiv": 1192,
      "Ġdr": 1193,
      "oy": 1194,
      "Ġgrou": 1195,
      "Ġincre": 1196,
      "Ġperson": 1197,
      "Ġparticularly": 1198,
      "thing": 1199,
      "Ġtechn": 1200,
      "box": 1201,
      "ĠIf": 1202,
      "ici": 1203,
      "ament": 1204,
      "Ġback": 1205,
      "Ġfound": 1206,
      "other": 1207,
      "Ġti": 1208,
      "ars": 1209,
      "Ġwithout": 1210,
      "ends": 1211,
      "hree": 1212,
      "ĠUn": 1213,
      "ants": 1214,
      "three": 1215,
      "Ġoff": 1216,
      "Ġreal": 1217,
      "Ġused": 1218,
      "hod": 1219,
      "Ġsy": 1220,
      "omes": 1221,
      "itional": 1222,
      "ings": 1223,
      "Ġthree": 1224,
      "vern": 1225,
      "task": 1226,
      "ides": 1227,
      "lect": 1228,
      "aph": 1229,
      "Ġtask": 1230,
      "ize": 1231,
      "Ġmus": 1232,
      "aj": 1233,
      "Ġyears": 1234,
      "eng": 1235,
      "Ġcur": 1236,
      "Ġfunction": 1237,
      "tern": 1238,
      "omet": 1239,
      "Ġocc": 1240,
      "Ġfund": 1241,
      "Ġmaintain": 1242,
      "Ġinformation": 1243,
      "Ġdetail": 1244,
      "Ġ**": 1245,
      "Ġplay": 1246,
      "Ġproper": 1247,
      "akes": 1248,
      "âĢĻ": 1249,
      "ying": 1250,
      "Ġpot": 1251,
      "times": 1252,
      "ared": 1253,
      "Ġposs": 1254,
      "Ex": 1255,
      "pos": 1256,
      "ization": 1257,
      "ages": 1258,
      "ÙĨ": 1259,
      "led": 1260,
      "Ġhelp": 1261,
      "cdot": 1262,
      "iod": 1263,
      "Ø±": 1264,
      "ĠHowever": 1265,
      "meric": 1266,
      "tional": 1267,
      "try": 1268,
      "Ġcall": 1269,
      "Ġexperi": 1270,
      "aut": 1271,
      "ural": 1272,
      "Ġpolitical": 1273,
      "acter": 1274,
      "ision": 1275,
      "boxed": 1276,
      "ĠAr": 1277,
      "Ġsever": 1278,
      "Ġwithi": 1279,
      "Ġwithin": 1280,
      "Ġarea": 1281,
      "Ġsecond": 1282,
      "ulation": 1283,
      "Ġclass": 1284,
      "Ġpatter": 1285,
      "Ġcul": 1286,
      "Ġmust": 1287,
      "plic": 1288,
      "Ġcirc": 1289,
      "Ġcontin": 1290,
      "eed": 1291,
      "Ġeconomic": 1292,
      "uppose": 1293,
      "pi": 1294,
      "Ġsystems": 1295,
      "Ġagain": 1296,
      "ties": 1297,
      "Ġpower": 1298,
      "Ġaff": 1299,
      "Ġmem": 1300,
      "Ġext": 1301,
      "tis": 1302,
      "ene": 1303,
      "Ġsum": 1304,
      "Ġmethod": 1305,
      "ph": 1306,
      "Ġmultiple": 1307,
      "ately": 1308,
      "Ġfl": 1309,
      "ublic": 1310,
      "Ġcontro": 1311,
      "Ġcar": 1312,
      "à¨": 1313,
      "Ġanal": 1314,
      "Ġpass": 1315,
      "Ġactually": 1316,
      "Ġhum": 1317,
      "ool": 1318,
      ")$": 1319,
      "\",": 1320,
      "ĠAmeric": 1321,
      "Ġshow": 1322,
      "Ġdevelopment": 1323,
      "Ġsee": 1324,
      "ior": 1325,
      "ds": 1326,
      "Ġperiod": 1327,
      "Ġgovern": 1328,
      "Ġdefi": 1329,
      "Ġmean": 1330,
      "Ġend": 1331,
      "Ġsocial": 1332,
      "Ġwater": 1333,
      "}}": 1334,
      "Ġmil": 1335,
      "angu": 1336,
      "Ġdiv": 1337,
      "Ġacross": 1338,
      "-s": 1339,
      "nts": 1340,
      "vi": 1341,
      "ute": 1342,
      "Ġstand": 1343,
      "Ġdirect": 1344,
      "ected": 1345,
      "Ġfil": 1346,
      "Ġchang": 1347,
      "ane": 1348,
      "par": 1349,
      "Ġcorre": 1350,
      "ividual": 1351,
      "Ġcri": 1352,
      "Ġorgan": 1353,
      "array": 1354,
      "Ġadv": 1355,
      "How": 1356,
      "nes": 1357,
      "{array": 1358,
      "ced": 1359,
      "Ġtotal": 1360,
      "Ġsuc": 1361,
      "Ġbefore": 1362,
      "Ġchall": 1363,
      "Ġown": 1364,
      "ĊĊĊ": 1365,
      "Ġindividual": 1366,
      "Ġcommun": 1367,
      "any": 1368,
      "istic": 1369,
      ")^": 1370,
      "view": 1371,
      "ah": 1372,
      "Ġorigi": 1373,
      "ertain": 1374,
      "Ġaut": 1375,
      "Ġlim": 1376,
      "Ġbroad": 1377,
      "co": 1378,
      "ource": 1379,
      "Ġgu": 1380,
      "Ġcr": 1381,
      "Ġrepresent": 1382,
      "not": 1383,
      "Ġwell": 1384,
      "Ġlikely": 1385,
      "ression": 1386,
      "ency": 1387,
      "Ġed": 1388,
      "Ġpr": 1389,
      "Ġsit": 1390,
      "Ġless": 1391,
      "arm": 1392,
      "Ġstrateg": 1393,
      "Ġpositive": 1394,
      "ĠIs": 1395,
      "Ġlangu": 1396,
      "Ġsto": 1397,
      "read": 1398,
      "ets": 1399,
      "arrow": 1400,
      "Ġele": 1401,
      "Ġname": 1402,
      "Ġallow": 1403,
      "Ġlaw": 1404,
      "br": 1405,
      "Ġchild": 1406,
      "Ġequation": 1407,
      "vir": 1408,
      "work": 1409,
      "áŀ": 1410,
      "Ġterms": 1411,
      "ĠFor": 1412,
      "ality": 1413,
      "Ġusing": 1414,
      "Ġevery": 1415,
      "az": 1416,
      "ĠWhile": 1417,
      "uff": 1418,
      "angle": 1419,
      "gy": 1420,
      "Ġfundament": 1421,
      "ĠWhen": 1422,
      "ner": 1423,
      "ĠThey": 1424,
      "Ġsaid": 1425,
      "ology": 1426,
      "\\]": 1427,
      "Ġoften": 1428,
      "Ġrelationship": 1429,
      "Ġhapp": 1430,
      "Ġwhether": 1431,
      "Ġcho": 1432,
      "Ġimport": 1433,
      "Ġserv": 1434,
      "ason": 1435,
      "Ġlet": 1436,
      "Ġlegal": 1437,
      "Ġframe": 1438,
      "ĠEng": 1439,
      "ital": 1440,
      "Ġmade": 1441,
      "ale": 1442,
      "Ġprim": 1443,
      "ury": 1444,
      "Ġprovide": 1445,
      "ĠAf": 1446,
      "ogn": 1447,
      "Ġdon": 1448,
      "Ġes": 1449,
      "viron": 1450,
      "gest": 1451,
      "Ġaround": 1452,
      "Ġmuch": 1453,
      "ection": 1454,
      "ots": 1455,
      "Ġgood": 1456,
      "Ġworld": 1457,
      "isms": 1458,
      "alculate": 1459,
      "Ġconditions": 1460,
      "Ġsuccess": 1461,
      "Ġcity": 1462,
      "begin": 1463,
      "Ġcharacter": 1464,
      ":ĊĊ": 1465,
      "ouse": 1466,
      "Ġlife": 1467,
      "lease": 1468,
      "Ġbel": 1469,
      "hose": 1470,
      "Ġdig": 1471,
      "Ġkey": 1472,
      "ands": 1473,
      "atch": 1474,
      "oss": 1475,
      "ĠAs": 1476,
      "Ġenti": 1477,
      "ĠRe": 1478,
      "Ġthing": 1479,
      "Ġnumbers": 1480,
      "Ġpoint": 1481,
      "hor": 1482,
      "rent": 1483,
      "ify": 1484,
      "Ġdistin": 1485,
      "ensive": 1486,
      "till": 1487,
      "Ġsugges": 1488,
      "Ġ|": 1489,
      "thin": 1490,
      "Ġenviron": 1491,
      "à¯": 1492,
      "Ġmark": 1493,
      "ãĤ": 1494,
      "ody": 1495,
      "those": 1496,
      "sure": 1497,
      "))": 1498,
      "Ġoccur": 1499,
      "Ġcultural": 1500,
      "alth": 1501,
      "Ġright": 1502,
      "day": 1503,
      "Ġour": 1504,
      "ata": 1505,
      "So": 1506,
      "Ġbi": 1507,
      "++++++++": 1508,
      "Ġthose": 1509,
      "Ġexample": 1510,
      "Ġrese": 1511,
      "adi": 1512,
      "Ġu": 1513,
      "ator": 1514,
      "Ġaw": 1515,
      "Ġmar": 1516,
      "Ġmeas": 1517,
      "Ġtypically": 1518,
      "Ġmaking": 1519,
      "Ġthin": 1520,
      "val": 1521,
      "med": 1522,
      "Ġbased": 1523,
      "Ġgrow": 1524,
      "Ġperform": 1525,
      "ances": 1526,
      "à¬": 1527,
      "Ġidenti": 1528,
      "Ġplace": 1529,
      "Ġcontain": 1530,
      "omm": 1531,
      "Ġdown": 1532,
      "Ġprob": 1533,
      "Ġday": 1534,
      "Ġgre": 1535,
      "ĠAl": 1536,
      "ins": 1537,
      "Ġcle": 1538,
      "Ġsing": 1539,
      "til": 1540,
      "pm": 1541,
      "Ġwant": 1542,
      "els": 1543,
      "ĠYou": 1544,
      "Ġlater": 1545,
      "Ġdri": 1546,
      "omi": 1547,
      "Ġbre": 1548,
      "Ġfri": 1549,
      "ird": 1550,
      "Ġmove": 1551,
      "Ġ[": 1552,
      "ajor": 1553,
      "ĠWh": 1554,
      "atri": 1555,
      "ject": 1556,
      "Ġvery": 1557,
      "Ġcare": 1558,
      "ape": 1559,
      "Ġconn": 1560,
      "ank": 1561,
      "man": 1562,
      "no": 1563,
      "(\\": 1564,
      "Ġcell": 1565,
      "\\[Ċ": 1566,
      "ÙĪ": 1567,
      "Ġseveral": 1568,
      "Ġline": 1569,
      "Ġlit": 1570,
      "Ġav": 1571,
      "Ġprof": 1572,
      "Ġorder": 1573,
      "Ġproblem": 1574,
      "ustr": 1575,
      "Ġwom": 1576,
      "Ġway": 1577,
      "math": 1578,
      "nation": 1579,
      "Ġpur": 1580,
      "ics": 1581,
      "ĠĠĠ": 1582,
      "Ġhy": 1583,
      "Ġearly": 1584,
      "Ġcorrect": 1585,
      "Ġfin": 1586,
      "ently": 1587,
      "Ġuni": 1588,
      "$.": 1589,
      "Ġbeh": 1590,
      "Ġpossible": 1591,
      "Ø¯": 1592,
      "amily": 1593,
      "Ġ(-": 1594,
      "ove": 1595,
      "ists": 1596,
      "Ġgl": 1597,
      "outh": 1598,
      "port": 1599,
      "Ġhistorical": 1600,
      "dic": 1601,
      "entially": 1602,
      "Ġcontext": 1603,
      "amp": 1604,
      "Ġbroader": 1605,
      "aving": 1606,
      "Ġlevel": 1607,
      "Ùĩ": 1608,
      "à§": 1609,
      "Ġinfluence": 1610,
      "Ġel": 1611,
      "Ġschool": 1612,
      "ĠThese": 1613,
      "ually": 1614,
      "ticle": 1615,
      "Ġstill": 1616,
      "à²": 1617,
      "cos": 1618,
      "tric": 1619,
      "ights": 1620,
      "ĠQuestion": 1621,
      "àº": 1622,
      "Ġcontrol": 1623,
      "Ġnat": 1624,
      "for": 1625,
      "ron": 1626,
      "àµ": 1627,
      "nci": 1628,
      "ull": 1629,
      "ĠWe": 1630,
      "Ġelec": 1631,
      "ogr": 1632,
      "Ġmajor": 1633,
      "Ġ\\(\\": 1634,
      "si": 1635,
      "Ġbecome": 1636,
      "itary": 1637,
      "Ġsqu": 1638,
      "Ġdoc": 1639,
      "ples": 1640,
      "ermine": 1641,
      "take": 1642,
      "urop": 1643,
      "Ġlanguage": 1644,
      "Ġphys": 1645,
      "-b": 1646,
      "atis": 1647,
      "ĠSp": 1648,
      "ety": 1649,
      "ĠCon": 1650,
      ")*": 1651,
      "ãĥ": 1652,
      "Ġsol": 1653,
      "Ġrepresents": 1654,
      "Ġmechanisms": 1655,
      "Ġfamily": 1656,
      "Ġretur": 1657,
      "ices": 1658,
      "Ġdef": 1659,
      "Ġvarious": 1660,
      "Ġfour": 1661,
      "Ġhuman": 1662,
      "Ġtemp": 1663,
      "ĠâĢ": 1664,
      "ex": 1665,
      "Ġchallen": 1666,
      "Ġinvolves": 1667,
      "eld": 1668,
      "ysis": 1669,
      "Ġent": 1670,
      "cl": 1671,
      "Ġstandard": 1672,
      "Ġtri": 1673,
      "Ġcurrent": 1674,
      "Ġnon": 1675,
      "Ġgroup": 1676,
      "Ġtransl": 1677,
      "ams": 1678,
      "Ġder": 1679,
      "ĠShe": 1680,
      "Ġold": 1681,
      "Ġ\\[": 1682,
      "Ġdesign": 1683,
      "atrix": 1684,
      "Ġwhy": 1685,
      "Ġcombi": 1686,
      "Ġ\\]Ċ": 1687,
      "line": 1688,
      "Ġagainst": 1689,
      "idence": 1690,
      "urope": 1691,
      "Ġdescri": 1692,
      "Ġdata": 1693,
      "que": 1694,
      "Ġmen": 1695,
      "Ġimportant": 1696,
      "mathb": 1697,
      "Ġdefin": 1698,
      "Ġlab": 1699,
      "Ġsci": 1700,
      "ret": 1701,
      "Ġcalled": 1702,
      "Ġbehav": 1703,
      "ĠInd": 1704,
      "Ġchanges": 1705,
      "]:": 1706,
      "Ġtell": 1707,
      "Ġcannot": 1708,
      "Ġlarge": 1709,
      "ives": 1710,
      "ints": 1711,
      "Ġcase": 1712,
      "Ġdetailed": 1713,
      "Ġtext": 1714,
      "ton": 1715,
      "Ġstructure": 1716,
      "tice": 1717,
      "Ġbus": 1718,
      "Ġresearch": 1719,
      "Ġmodern": 1720,
      "temp": 1721,
      "Ġgovernment": 1722,
      "Ġ}\\": 1723,
      "ident": 1724,
      "Ġlook": 1725,
      "Ġiniti": 1726,
      "-d": 1727,
      "Ġterm": 1728,
      "Ġpublic": 1729,
      "Ġsitu": 1730,
      "Ġcontrib": 1731,
      "igious": 1732,
      "sin": 1733,
      "ÙĦ": 1734,
      "Ġposition": 1735,
      "Ġpatterns": 1736,
      "Ġemp": 1737,
      "Ġbecame": 1738,
      "Ġplan": 1739,
      "equ": 1740,
      "onstr": 1741,
      "Ġfood": 1742,
      "trib": 1743,
      "ional": 1744,
      "uss": 1745,
      "tures": 1746,
      "Ġsup": 1747,
      "Ġsupport": 1748,
      "Ġcour": 1749,
      "omin": 1750,
      "Ġnext": 1751,
      "Ġprinci": 1752,
      "Ġpolic": 1753,
      "Ġproduct": 1754,
      "Ġge": 1755,
      "Ġve": 1756,
      "ergy": 1757,
      "Ġestablished": 1758,
      "Ġcertain": 1759,
      "orts": 1760,
      "ument": 1761,
      "Ġauthor": 1762,
      "ump": 1763,
      "Ġtake": 1764,
      "eral": 1765,
      "ĠEnglish": 1766,
      "Ġvis": 1767,
      "ĠEurope": 1768,
      "Ġsk": 1769,
      "Ġread": 1770,
      "Ġunsure": 1771,
      "omething": 1772,
      "ames": 1773,
      "engt": 1774,
      "Ġneg": 1775,
      "hie": 1776,
      "Ġvalues": 1777,
      "Ġbetter": 1778,
      "Right": 1779,
      "Ġhome": 1780,
      "Ġdemonstr": 1781,
      "ĠAmerican": 1782,
      "To": 1783,
      "na": 1784,
      "Ġris": 1785,
      "Ġenvironment": 1786,
      "Ġreligious": 1787,
      "**Ċ": 1788,
      "Ġcome": 1789,
      "Ġknown": 1790,
      "Ġtraditional": 1791,
      "Ġintegr": 1792,
      "Rightarrow": 1793,
      "Ġdue": 1794,
      "ked": 1795,
      "Ġobs": 1796,
      "ength": 1797,
      "ending": 1798,
      "orth": 1799,
      "Ġsuggests": 1800,
      "treat": 1801,
      "utes": 1802,
      "Ġfundamental": 1803,
      "Ġanalysis": 1804,
      "Ġhand": 1805,
      "arily": 1806,
      "Ġprovid": 1807,
      "ĠNew": 1808,
      "Ġatt": 1809,
      "Ġ\\[Ċ": 1810,
      "ĠHis": 1811,
      "ense": 1812,
      "Ġbuild": 1813,
      "Ġ×": 1814,
      "Ġhealth": 1815,
      "Ġactiv": 1816,
      "Ġair": 1817,
      "ift": 1818,
      "âĢĻs": 1819,
      "Ġfilm": 1820,
      "Ġver": 1821,
      "Ġmilitary": 1822,
      "tre": 1823,
      "Ġpopulation": 1824,
      "Ġindeed": 1825,
      "Ġwar": 1826,
      "ĠThere": 1827,
      "ories": 1828,
      "ously": 1829,
      "Ġsomething": 1830,
      "ways": 1831,
      "Ġmeans": 1832,
      "Ġpress": 1833,
      "tes": 1834,
      "Ġyear": 1835,
      "Ġwr": 1836,
      "ON": 1837,
      "oks": 1838,
      "cept": 1839,
      "Ġreview": 1840,
      "iness": 1841,
      "orn": 1842,
      "Øª": 1843,
      "ĠFr": 1844,
      "Ġeffective": 1845,
      "à¤¾": 1846,
      "Ġlist": 1847,
      "ĠĠĠĠĠĠĠĠ": 1848,
      "ĠHow": 1849,
      "Ġcaus": 1850,
      "Ġtur": 1851,
      "Pro": 1852,
      "Ġspecial": 1853,
      ",\"": 1854,
      "Ġenergy": 1855,
      "Ã©": 1856,
      "Ġbase": 1857,
      "Ġgreat": 1858,
      "Ġnow": 1859,
      "Ġapproaches": 1860,
      "oci": 1861,
      "Ġsquare": 1862,
      "ĠAn": 1863,
      "Ġdivid": 1864,
      "iving": 1865,
      "Ġred": 1866,
      "ĠChin": 1867,
      "Ġsay": 1868,
      "Ġ*": 1869,
      "Ġrecogn": 1870,
      "ocus": 1871,
      "Ġbelie": 1872,
      "ĠPro": 1873,
      "Ġcreate": 1874,
      "source": 1875,
      "Ġtreat": 1876,
      "ived": 1877,
      "Ġsince": 1878,
      "ling": 1879,
      "Ġcomplete": 1880,
      "Ġbody": 1881,
      "amm": 1882,
      "ĠØ§": 1883,
      "acy": 1884,
      "ĠJo": 1885,
      "anti": 1886,
      "Ġexact": 1887,
      "omp": 1888,
      "Ġrepl": 1889,
      "lying": 1890,
      "Ġoriginal": 1891,
      "Ùħ": 1892,
      "erc": 1893,
      "lo": 1894,
      "eta": 1895,
      "tom": 1896,
      "ote": 1897,
      "Ġcont": 1898,
      "Ġsignificantly": 1899,
      "Ġpresent": 1900,
      "hird": 1901,
      "third": 1902,
      "Ġrecord": 1903,
      "ecess": 1904,
      "Ġnatural": 1905,
      "Ġmill": 1906,
      "Ġchange": 1907,
      "ash": 1908,
      "Ġanim": 1909,
      "Ġvol": 1910,
      "Ġpers": 1911,
      "ploy": 1912,
      "cle": 1913,
      "Ġer": 1914,
      "ither": 1915,
      "ĠTr": 1916,
      "Ġprime": 1917,
      "Ġsl": 1918,
      "tors": 1919,
      "Ġiss": 1920,
      "TI": 1921,
      "Ġabs": 1922,
      "yn": 1923,
      "Ġà¦": 1924,
      "}}{": 1925,
      "Ġnature": 1926,
      "\".": 1927,
      "Ġframework": 1928,
      "ral": 1929,
      "},": 1930,
      "Given": 1931,
      "Ġentire": 1932,
      "Ġcountry": 1933,
      "epend": 1934,
      "Ġfocus": 1935,
      "arding": 1936,
      "Ġess": 1937,
      "uce": 1938,
      "Ġq": 1939,
      "Ġhead": 1940,
      "ĠĠĊ": 1941,
      "Ġmater": 1942,
      "\\),": 1943,
      "Ġeng": 1944,
      "Ġlear": 1945,
      "\\end": 1946,
      "Solve": 1947,
      "Ġtimes": 1948,
      "Ġsequ": 1949,
      "ordi": 1950,
      "Ġdel": 1951,
      "Ġpoints": 1952,
      "Ġworks": 1953,
      "tices": 1954,
      "Ġsimil": 1955,
      "ĠSo": 1956,
      "Ġchildren": 1957,
      "atory": 1958,
      "Ġachie": 1959,
      "Ġanother": 1960,
      "Ġstart": 1961,
      "less": 1962,
      "Ġcontinu": 1963,
      "ats": 1964,
      "Ġthird": 1965,
      "Ġevolution": 1966,
      "Ġlength": 1967,
      "Ġoffic": 1968,
      "irt": 1969,
      "Ġeduc": 1970,
      "Ġide": 1971,
      "?ĊĊ": 1972,
      "eter": 1973,
      "Ġlocal": 1974,
      "asing": 1975,
      "Ġwrit": 1976,
      "Ġrece": 1977,
      "\\begin": 1978,
      "ains": 1979,
      "Ġremains": 1980,
      "gether": 1981,
      "...": 1982,
      "Ġtre": 1983,
      "Ġbehavior": 1984,
      "uture": 1985,
      "ilities": 1986,
      "Ġrole": 1987,
      "Ġmusic": 1988,
      "Ġinteger": 1989,
      "Ġbest": 1990,
      "ee": 1991,
      "ecti": 1992,
      "impl": 1993,
      "Ġear": 1994,
      "Ġinstitu": 1995,
      "$.ĊĊ": 1996,
      "eg": 1997,
      "ĠUnited": 1998,
      "Ġprogr": 1999,
      "Ġsingle": 2000,
      "verse": 2001,
      "à±": 2002,
      "Ġmath": 2003,
      "Ġ\\),": 2004,
      "Ġstory": 2005,
      "Ġreflec": 2006,
      "Ġhour": 2007,
      "Ġbene": 2008,
      "por": 2009,
      "Ġreduc": 2010,
      "Ġleft": 2011,
      "Ġunderstanding": 2012,
      "Ġdeter": 2013,
      "Ġjob": 2014,
      "utput": 2015,
      "Ġlast": 2016,
      "ock": 2017,
      "ctions": 2018,
      "Ġevent": 2019,
      "Ġside": 2020,
      "Ġradi": 2021,
      "Ġapplic": 2022,
      "ĠSuppose": 2023,
      "Ġresul": 2024,
      "Ġfuture": 2025,
      "Ġmakes": 2026,
      "à«": 2027,
      "Ġrun": 2028,
      "Ġmeaning": 2029,
      "aces": 2030,
      "Ġinput": 2031,
      "Ġpotential": 2032,
      "Ġdist": 2033,
      "dd": 2034,
      "sy": 2035,
      "oid": 2036,
      "hips": 2037,
      "Ġcompar": 2038,
      "Ġpredic": 2039,
      "Ġalong": 2040,
      "ĠZ": 2041,
      "mathbf": 2042,
      "gen": 2043,
      "test": 2044,
      "-c": 2045,
      "Ġspecifically": 2046,
      "Ġevidence": 2047,
      "Ġenc": 2048,
      "ier": 2049,
      "Ġbey": 2050,
      "Ġcy": 2051,
      "Ġstre": 2052,
      "Ġtogether": 2053,
      "Ġdirectly": 2054,
      "Ġbeyond": 2055,
      "TION": 2056,
      "Ġintern": 2057,
      "Ġmaterial": 2058,
      "ra": 2059,
      "Ġresult": 2060,
      "Ġfre": 2061,
      "Ġmoney": 2062,
      "Ġsimilar": 2063,
      "Ġdeath": 2064,
      "bed": 2065,
      "ĠYour": 2066,
      "Ġ-\\": 2067,
      "Ġden": 2068,
      "ources": 2069,
      "Ġworking": 2070,
      "Ġimpro": 2071,
      "Ġsepar": 2072,
      "Ġdisc": 2073,
      "Ġcreated": 2074,
      "Ġothers": 2075,
      "Ġbig": 2076,
      "Ġwords": 2077,
      "imum": 2078,
      "Ġmethods": 2079,
      "ended": 2080,
      "ĠQ": 2081,
      "ified": 2082,
      "Ġderiv": 2083,
      "Ġmeasure": 2084,
      "Ġmovie": 2085,
      "Suppose": 2086,
      "ires": 2087,
      "ĠGiven": 2088,
      "Ġrefer": 2089,
      "Ġpath": 2090,
      "For": 2091,
      "uts": 2092,
      "etic": 2093,
      "sequ": 2094,
      "Ġnecess": 2095,
      "get": 2096,
      "Ġdivided": 2097,
      "Ġindic": 2098,
      "istr": 2099,
      "alse": 2100,
      "##": 2101,
      "lex": 2102,
      "Ġways": 2103,
      "ĠAt": 2104,
      "Ġcompared": 2105,
      "Ġfeel": 2106,
      "uit": 2107,
      "ix": 2108,
      "ĠSte": 2109,
      "Find": 2110,
      "versity": 2111,
      "tries": 2112,
      "Ġprec": 2113,
      "ison": 2114,
      "Ġhaving": 2115,
      "Ġstudents": 2116,
      "osed": 2117,
      "\\]ĊĊ": 2118,
      "ission": 2119,
      "Ġshort": 2120,
      "ĠBut": 2121,
      "osp": 2122,
      "Ġbas": 2123,
      "ck": 2124,
      "Ġcentury": 2125,
      "Problem": 2126,
      "Ġpick": 2127,
      "Ġbusiness": 2128,
      "We": 2129,
      "und": 2130,
      "Ġwee": 2131,
      "Ġgive": 2132,
      "ung": 2133,
      "Ġstates": 2134,
      "Ġcreating": 2135,
      "Ġvi": 2136,
      "ope": 2137,
      "Ġequal": 2138,
      "Ġnorm": 2139,
      "Ġlow": 2140,
      "Ġprotec": 2141,
      "Ġaddress": 2142,
      "utions": 2143,
      "ĠMar": 2144,
      "Ġsus": 2145,
      "Ġthink": 2146,
      "Ġgroups": 2147,
      "Ġvers": 2148,
      "ref": 2149,
      "tens": 2150,
      "Ġtop": 2151,
      "Ġwomen": 2152,
      "arth": 2153,
      "Ġdiffic": 2154,
      "Ġreason": 2155,
      "Ġbecomes": 2156,
      "igher": 2157,
      "ĠEx": 2158,
      "Ġarg": 2159,
      "}\\)": 2160,
      "Ġpractical": 2161,
      "Ġhouse": 2162,
      "Ġtype": 2163,
      "à¯į": 2164,
      "enced": 2165,
      "Ġappears": 2166,
      "Ġpati": 2167,
      "Ġyoung": 2168,
      "Ġprocesses": 2169,
      "Ġblood": 2170,
      "Ġkill": 2171,
      "oint": 2172,
      "Ġleast": 2173,
      "Ġtoward": 2174,
      "}{\\": 2175,
      "Ġindepend": 2176,
      "Ġaccess": 2177,
      "Ġmathem": 2178,
      "Ġcountries": 2179,
      "Ġfo": 2180,
      "-m": 2181,
      "Ġareas": 2182,
      "Ú©": 2183,
      "io": 2184,
      "Ġtoo": 2185,
      "You": 2186,
      "nom": 2187,
      "Ġoutput": 2188,
      "Example": 2189,
      "Ġkeep": 2190,
      "Ġsomeone": 2191,
      "Ġreach": 2192,
      "Ġeither": 2193,
      "-p": 2194,
      "augh": 2195,
      "Ġscienti": 2196,
      "Ġimple": 2197,
      "ordin": 2198,
      "Ġword": 2199,
      "ium": 2200,
      "Ġmor": 2201,
      "Ġthings": 2202,
      "Ġàª": 2203,
      "ĠCan": 2204,
      "Ġseem": 2205,
      "Ġoutc": 2206,
      "Ġland": 2207,
      "action": 2208,
      "Ġtransform": 2209,
      "Ġarch": 2210,
      "iew": 2211,
      "ĠChr": 2212,
      "Ġexpression": 2213,
      "Ġaway": 2214,
      "Ġitself": 2215,
      "Ġdifference": 2216,
      "Ġang": 2217,
      "ĠStates": 2218,
      "Ġdoesn": 2219,
      "anation": 2220,
      "usion": 2221,
      "Ġdistinct": 2222,
      "eore": 2223,
      "Ġspecies": 2224,
      "Ġhigher": 2225,
      "ened": 2226,
      "Ġhold": 2227,
      "heore": 2228,
      "Ġamong": 2229,
      "Ġ<": 2230,
      "theore": 2231,
      "Wh": 2232,
      "Ġstep": 2233,
      "ged": 2234,
      "Ġadap": 2235,
      "Ġtypes": 2236,
      "Ġadmin": 2237,
      "Ġmag": 2238,
      "go": 2239,
      "Ġsituation": 2240,
      "Ġderivative": 2241,
      "Ġmont": 2242,
      "ption": 2243,
      "Ġmaintaining": 2244,
      "ĠAnd": 2245,
      "Ġobserv": 2246,
      "Ġdetermine": 2247,
      "ification": 2248,
      "bo": 2249,
      "Ġdivis": 2250,
      "Ġpoly": 2251,
      "Ġelements": 2252,
      "Ġmodel": 2253,
      "Ġet": 2254,
      "Yes": 2255,
      "Ġdistrib": 2256,
      "Ġemploy": 2257,
      "irth": 2258,
      "Ġreally": 2259,
      "quad": 2260,
      "ĠPerson": 2261,
      "ume": 2262,
      "ula": 2263,
      "-\\": 2264,
      "Ġtheore": 2265,
      "Ġsolve": 2266,
      "Ġability": 2267,
      "Ġcost": 2268,
      "icient": 2269,
      "eti": 2270,
      "Ġnegative": 2271,
      "Ġhistory": 2272,
      "Ġrespons": 2273,
      "ibility": 2274,
      "Ġview": 2275,
      "ĠPar": 2276,
      "Ġinst": 2277,
      "idd": 2278,
      "Ġprofess": 2279,
      "Ġcateg": 2280,
      "Ġstar": 2281,
      "Ġlight": 2282,
      "Ġnational": 2283,
      "Ġmonth": 2284,
      "erature": 2285,
      "ĠNo": 2286,
      "Ġarticle": 2287,
      "ograph": 2288,
      "ĠAfter": 2289,
      "Ġbooks": 2290,
      "apan": 2291,
      "vent": 2292,
      "Ġinternational": 2293,
      "Ġtal": 2294,
      "Tr": 2295,
      "Ġregion": 2296,
      "sych": 2297,
      "ably": 2298,
      "pe": 2299,
      "Ġmarket": 2300,
      "Ġfur": 2301,
      "Ġcreates": 2302,
      "way": 2303,
      "Ġstrong": 2304,
      "ĠGerm": 2305,
      "of": 2306,
      "Ġlevels": 2307,
      "Ġrele": 2308,
      "Ġimpact": 2309,
      "Ġri": 2310,
      "Ġmanage": 2311,
      "Ġcompany": 2312,
      "ĠDe": 2313,
      "Ġfail": 2314,
      "ony": 2315,
      ")(": 2316,
      "Ġdyn": 2317,
      "izing": 2318,
      "aries": 2319,
      "utr": 2320,
      "ply": 2321,
      "Ġfam": 2322,
      "Ġuntil": 2323,
      "ring": 2324,
      "aud": 2325,
      "aves": 2326,
      "Ġexpress": 2327,
      "tax": 2328,
      "tract": 2329,
      "tar": 2330,
      "ler": 2331,
      "Ġpain": 2332,
      "Ġfinal": 2333,
      "'ve": 2334,
      "Ġpotentially": 2335,
      "Ġmax": 2336,
      "ones": 2337,
      "Ġemer": 2338,
      "----": 2339,
      "rench": 2340,
      "ready": 2341,
      "gers": 2342,
      "Ġavail": 2343,
      "lam": 2344,
      "ols": 2345,
      "Ġbal": 2346,
      "over": 2347,
      "No": 2348,
      "Ġchallenges": 2349,
      "Ġtriangle": 2350,
      "Ġflow": 2351,
      "Ġplot": 2352,
      "à¤¾à¤": 2353,
      "Ġexperience": 2354,
      "Ġconsidered": 2355,
      "ĠCl": 2356,
      "Ġwon": 2357,
      "nc": 2358,
      "ule": 2359,
      "ls": 2360,
      "Ġcases": 2361,
      "Ġarr": 2362,
      "Ġtrue": 2363,
      "pmatrix": 2364,
      "{pmatrix": 2365,
      "Ġtax": 2366,
      "-f": 2367,
      "stitu": 2368,
      "Ġspe": 2369,
      "ought": 2370,
      "tish": 2371,
      "Ġ{": 2372,
      "Ġsequence": 2373,
      "Ġgeneral": 2374,
      "ĠÐ": 2375,
      "Ġperformance": 2376,
      "Ġsubst": 2377,
      "ounds": 2378,
      "Ġdepend": 2379,
      "Ġsent": 2380,
      "Ġalready": 2381,
      "\\right": 2382,
      "acher": 2383,
      "Ġassoci": 2384,
      "pite": 2385,
      "Ġrisk": 2386,
      "ley": 2387,
      "Ġrequires": 2388,
      "uted": 2389,
      "reh": 2390,
      "verage": 2391,
      "tead": 2392,
      "eff": 2393,
      "*x": 2394,
      "Ġproduction": 2395,
      "ales": 2396,
      "Ġbenef": 2397,
      "Ġpsych": 2398,
      "Ġgreater": 2399,
      "ratic": 2400,
      "There": 2401,
      "ording": 2402,
      "Ġpolicy": 2403,
      "Ġconcer": 2404,
      "Ġbirth": 2405,
      "Since": 2406,
      "ered": 2407,
      "Ġalways": 2408,
      "</": 2409,
      "Ġnet": 2410,
      "Ġà¨": 2411,
      "works": 2412,
      "Ġclai": 2413,
      "Ġadministr": 2414,
      "Ġur": 2415,
      "Ġrelationships": 2416,
      "Ġphysical": 2417,
      "Ġinterp": 2418,
      "ches": 2419,
      "Ġinvolve": 2420,
      "esis": 2421,
      "log": 2422,
      "àµį": 2423,
      "ĠLe": 2424,
      "ĠBri": 2425,
      "Ġbook": 2426,
      "Ġinclude": 2427,
      "ĠJapan": 2428,
      "pec": 2429,
      "Ġcharacteristic": 2430,
      "tics": 2431,
      "Ø³": 2432,
      "Ġrest": 2433,
      "ister": 2434,
      "Ġsurf": 2435,
      "Ġlimit": 2436,
      "ĠØ¨": 2437,
      "Ġaffect": 2438,
      "ĠÙħ": 2439,
      "Ġexplain": 2440,
      "Ġsmallest": 2441,
      "ĠMo": 2442,
      "*d": 2443,
      "*y": 2444,
      "ĠBr": 2445,
      "*t": 2446,
      "ards": 2447,
      "*i": 2448,
      "*p": 2449,
      "Ġclear": 2450,
      "âĢĿ": 2451,
      "*z": 2452,
      "Ġrul": 2453,
      "Ġtrain": 2454,
      "*w": 2455,
      "Ġappear": 2456,
      "*n": 2457,
      "*s": 2458,
      "*u": 2459,
      "*v": 2460,
      "eory": 2461,
      "heory": 2462,
      "theory": 2463,
      "blems": 2464,
      "*r": 2465,
      "Ġsw": 2466,
      "Ġfig": 2467,
      "*q": 2468,
      "*g": 2469,
      "*h": 2470,
      "*k": 2471,
      "*m": 2472,
      "*l": 2473,
      "Ġabove": 2474,
      "*o": 2475,
      "*j": 2476,
      "*f": 2477,
      "circ": 2478,
      "Ġdeveloped": 2479,
      "Ġtest": 2480,
      "Ġspace": 2481,
      "Ġmillion": 2482,
      "ulations": 2483,
      "Ġtheory": 2484,
      "Ġsym": 2485,
      "Ġdise": 2486,
      "Ġfull": 2487,
      "*b": 2488,
      "BC": 2489,
      "fy": 2490,
      "*c": 2491,
      "Ġpressure": 2492,
      "à©": 2493,
      "*a": 2494,
      "Ġneeds": 2495,
      "Ġprimary": 2496,
      "Ġmedical": 2497,
      "Ġstructures": 2498,
      "à¥į": 2499,
      "ĠWar": 2500,
      "Ġtreatment": 2501,
      "Ġproblems": 2502,
      "Ġdays": 2503,
      "Ġtrave": 2504,
      "Ġnear": 2505,
      "Ġfriend": 2506,
      ")/(": 2507,
      "Ġstat": 2508,
      "Ġtitle": 2509,
      "Ġcompos": 2510,
      "Ġminutes": 2511,
      "nk": 2512,
      "medi": 2513,
      "Ġbreak": 2514,
      "onse": 2515,
      "Ġ$(": 2516,
      "Ġimplement": 2517,
      "yle": 2518,
      "Ġmass": 2519,
      "ĠGr": 2520,
      "ids": 2521,
      "ze": 2522,
      "Ġfew": 2523,
      "Ġwi": 2524,
      "à¥įà¤": 2525,
      "Ġcompreh": 2526,
      "\\sqrt": 2527,
      "Ġeffects": 2528,
      "ially": 2529,
      "Ġfield": 2530,
      "Ġrelative": 2531,
      "xim": 2532,
      "Ġsatis": 2533,
      "Ġcondition": 2534,
      "atical": 2535,
      "Ġreflects": 2536,
      "heta": 2537,
      "Ġcause": 2538,
      "acks": 2539,
      "theta": 2540,
      "Ġage": 2541,
      "ĠWhich": 2542,
      "$\\": 2543,
      "igr": 2544,
      "Ġvo": 2545,
      "ised": 2546,
      "Ġpi": 2547,
      "Ġoffer": 2548,
      "ables": 2549,
      "truction": 2550,
      "Ġpost": 2551,
      "Ġphil": 2552,
      ".,": 2553,
      "Ġcos": 2554,
      "Ġlog": 2555,
      "jects": 2556,
      "ork": 2557,
      "Ġgot": 2558,
      ")Ċ": 2559,
      "Ġindividuals": 2560,
      "veness": 2561,
      "Ġpassage": 2562,
      "Ġrate": 2563,
      "ledge": 2564,
      "ĠEuropean": 2565,
      "amed": 2566,
      ".S": 2567,
      "Ġimm": 2568,
      "Ġrights": 2569,
      "by": 2570,
      ";Ċ": 2571,
      "Ġsex": 2572,
      "{x": 2573,
      "alls": 2574,
      "Ġpersonal": 2575,
      "arest": 2576,
      "à¥ĩ": 2577,
      "ĠX": 2578,
      "Ġexist": 2579,
      "ival": 2580,
      "Ġfriends": 2581,
      "Ġeas": 2582,
      "Ġlargest": 2583,
      "ann": 2584,
      "Ġsuccessful": 2585,
      "Ġdigit": 2586,
      "Ġprovided": 2587,
      "Ġul": 2588,
      "osop": 2589,
      "Ġprom": 2590,
      "Ġdeb": 2591,
      "Ġfive": 2592,
      "Ġprimarily": 2593,
      "isting": 2594,
      "Ġanti": 2595,
      "cent": 2596,
      "Ġcircum": 2597,
      "Ġteam": 2598,
      "une": 2599,
      "tex": 2600,
      "udd": 2601,
      "Thus": 2602,
      "Ġpractices": 2603,
      "Ġ}": 2604,
      "Ġfather": 2605,
      "Ġwritten": 2606,
      "elves": 2607,
      "Ġreplace": 2608,
      "Ġpattern": 2609,
      "Ġgrowt": 2610,
      "Ġgrowth": 2611,
      "term": 2612,
      "Ġgir": 2613,
      "ban": 2614,
      "Ġfunctions": 2615,
      "Ġfree": 2616,
      "Ġhours": 2617,
      "Ġstudy": 2618,
      "Ġtar": 2619,
      "Ġnormal": 2620,
      "ptions": 2621,
      "Ġparticip": 2622,
      "ious": 2623,
      "ening": 2624,
      "Ġconflic": 2625,
      "alf": 2626,
      "aged": 2627,
      "Ġattemp": 2628,
      "pt": 2629,
      "Ġnearest": 2630,
      "ae": 2631,
      "Ġpay": 2632,
      "estern": 2633,
      "Ġsaf": 2634,
      "Ġcomprehensive": 2635,
      "Ġfact": 2636,
      "Ġla": 2637,
      "Ġcells": 2638,
      "Ġsolution": 2639,
      "urity": 2640,
      "ering": 2641,
      "Is": 2642,
      "aster": 2643,
      "Ġrates": 2644,
      "reme": 2645,
      "Ġcus": 2646,
      "ĠĊĊ": 2647,
      "ech": 2648,
      "ney": 2649,
      "Ġinvolved": 2650,
      "ĠSentence": 2651,
      "Ġbur": 2652,
      "bs": 2653,
      "lected": 2654,
      "Ġprobability": 2655,
      "bum": 2656,
      "Ġpare": 2657,
      "ĠSome": 2658,
      "Ġquite": 2659,
      "Ġfore": 2660,
      "ivil": 2661,
      "Ġoutcomes": 2662,
      "Ġseries": 2663,
      "ĠBe": 2664,
      "Ġmother": 2665,
      "Ġface": 2666,
      "ctor": 2667,
      "-y": 2668,
      "Ġnight": 2669,
      "Ġresults": 2670,
      "Ġoppos": 2671,
      "aced": 2672,
      "ik": 2673,
      "Ġlower": 2674,
      "olic": 2675,
      "Ġhard": 2676,
      "Ġlabel": 2677,
      "self": 2678,
      "âĢĶ": 2679,
      "Ġwin": 2680,
      "Calculate": 2681,
      "Ġphilosop": 2682,
      "Ġexactly": 2683,
      "Ġviol": 2684,
      "Ġcli": 2685,
      "Ġdifficult": 2686,
      "Ġdetails": 2687,
      "Ġconsist": 2688,
      "ĠBritish": 2689,
      "ĠFrench": 2690,
      "ĠIns": 2691,
      "ederal": 2692,
      "Ġdisco": 2693,
      "Ġregarding": 2694,
      "Ġstuff": 2695,
      "ĠAfric": 2696,
      "ĠAnswer": 2697,
      "Ġtrying": 2698,
      "estions": 2699,
      "Ġstrategic": 2700,
      "ĠSince": 2701,
      "ĠSouth": 2702,
      "Ġproperties": 2703,
      "Ġgenerally": 2704,
      "Ġenvironmental": 2705,
      "Ġdistance": 2706,
      "Ġtes": 2707,
      "Ġcalcul": 2708,
      "Ġbar": 2709,
      "Ġwrite": 2710,
      "Ġenough": 2711,
      "Ġdecision": 2712,
      "à¹": 2713,
      "Ġremainder": 2714,
      "pr": 2715,
      "oes": 2716,
      "Ġconstitu": 2717,
      "When": 2718,
      "ĠSe": 2719,
      "fied": 2720,
      "Ġoperations": 2721,
      "Now": 2722,
      "aging": 2723,
      "my": 2724,
      "cer": 2725,
      "Ġtechni": 2726,
      "pri": 2727,
      "ma": 2728,
      "Ġtrade": 2729,
      "Ġresponse": 2730,
      "Ġintegers": 2731,
      "time": 2732,
      "ush": 2733,
      "Ġadvant": 2734,
      "Ġbuilding": 2735,
      "ĠWor": 2736,
      "Ġaccur": 2737,
      "}$.": 2738,
      "has": 2739,
      "orary": 2740,
      "Ġpractice": 2741,
      "Ġregions": 2742,
      "actions": 2743,
      "ectiveness": 2744,
      "Ġnever": 2745,
      "ĠTo": 2746,
      "Ġjud": 2747,
      "Ġcentral": 2748,
      ")/(-": 2749,
      "Ġauthority": 2750,
      "Ġprecise": 2751,
      "Ġcame": 2752,
      "False": 2753,
      "Ġtens": 2754,
      "Ġcompeti": 2755,
      "Ġmembers": 2756,
      "Ġfurther": 2757,
      "Ġprovides": 2758,
      "+\\": 2759,
      "ators": 2760,
      "hib": 2761,
      "Ġsides": 2762,
      "agr": 2763,
      "eck": 2764,
      "Ġincreasing": 2765,
      "ĠUS": 2766,
      "ĠâĢľ": 2767,
      "Ġprog": 2768,
      "Ġdam": 2769,
      "Ġhyp": 2770,
      "Ġterrit": 2771,
      "Ġlies": 2772,
      "Ġpriv": 2773,
      "Ġprinciples": 2774,
      "Ġprevi": 2775,
      "Ġinterest": 2776,
      "Ġfav": 2777,
      "ero": 2778,
      "rb": 2779,
      "Ġmathematical": 2780,
      "Ġavailable": 2781,
      "uck": 2782,
      "atures": 2783,
      "True": 2784,
      "Ġexplanation": 2785,
      "ĠJohn": 2786,
      "Ġpair": 2787,
      "Ġà°": 2788,
      "Ġknowledge": 2789,
      "tian": 2790,
      "Ġled": 2791,
      "oto": 2792,
      "ĠCar": 2793,
      "ror": 2794,
      "ounded": 2795,
      "ember": 2796,
      "-term": 2797,
      "ĠInput": 2798,
      "ball": 2799,
      "Ġsmaller": 2800,
      "ont": 2801,
      "Ġnumer": 2802,
      "Ġcamp": 2803,
      "Ġfrequ": 2804,
      "Ġrelated": 2805,
      "Ġfinanc": 2806,
      "Ġrange": 2807,
      "Ġquestions": 2808,
      "Ġalbum": 2809,
      "erate": 2810,
      "Ġroom": 2811,
      "ĠLi": 2812,
      "Ġau": 2813,
      "Ġself": 2814,
      "Ġeffectiveness": 2815,
      "Ġletters": 2816,
      "rup": 2817,
      "ceed": 2818,
      "Ġplant": 2819,
      "ĠOn": 2820,
      "ques": 2821,
      "Ġforces": 2822,
      "ĠChris": 2823,
      "ĠPl": 2824,
      "Ġconst": 2825,
      "ultane": 2826,
      "Ġsimpl": 2827,
      "Ġasp": 2828,
      "ĠBy": 2829,
      "Ġassess": 2830,
      "Ġgoing": 2831,
      "Ġunits": 2832,
      "Ġkind": 2833,
      "Ġemo": 2834,
      "Ġunique": 2835,
      "Ġshift": 2836,
      "Ġlimited": 2837,
      "Ġeffect": 2838,
      "_n": 2839,
      "aps": 2840,
      "Ġbegan": 2841,
      "Ġdynam": 2842,
      "Ġparty": 2843,
      "Ġsuff": 2844,
      "à¦¾": 2845,
      "Simpl": 2846,
      "Ġcommunity": 2847,
      "ÃŃ": 2848,
      "Ġearli": 2849,
      "Ġglob": 2850,
      "Solution": 2851,
      "Ġcollec": 2852,
      "Ġà®": 2853,
      "Ġchoose": 2854,
      "Ġdraw": 2855,
      "riting": 2856,
      "istance": 2857,
      "ulture": 2858,
      "Ġelectr": 2859,
      "Ġproperty": 2860,
      "Ġweek": 2861,
      "Ġserve": 2862,
      "Ġsurface": 2863,
      "Ġcruc": 2864,
      "Ġtransport": 2865,
      "Ġsurv": 2866,
      "/(-": 2867,
      "Ġgame": 2868,
      "ĠAd": 2869,
      "Ġwal": 2870,
      "ĠCalculate": 2871,
      "Ġbrain": 2872,
      "oring": 2873,
      "Ġcircle": 2874,
      "aling": 2875,
      "ership": 2876,
      "Ġfar": 2877,
      "Ġevents": 2878,
      "àµįà´": 2879,
      "Ġgives": 2880,
      "NA": 2881,
      "Ġrev": 2882,
      "Ġput": 2883,
      "Ġbelow": 2884,
      "duce": 2885,
      "Ġ\\).": 2886,
      "ĠNorth": 2887,
      "Ġinitial": 2888,
      "Ġforms": 2889,
      "Ġ.Ċ": 2890,
      "Ġregular": 2891,
      "Ġcomes": 2892,
      "Ġchem": 2893,
      "Ġsize": 2894,
      "ĠCons": 2895,
      "ĠCol": 2896,
      "Ġcapital": 2897,
      "Ġdespite": 2898,
      "ta": 2899,
      "ole": 2900,
      "Ġvalid": 2901,
      "^\\": 2902,
      "mit": 2903,
      "Ġ:": 2904,
      "Ġ_": 2905,
      "Ġvir": 2906,
      "tory": 2907,
      "-based": 2908,
      "Ġincrease": 2909,
      "selves": 2910,
      "Ġsimultane": 2911,
      "Ġmovement": 2912,
      "Ġvary": 2913,
      "Ġcoordin": 2914,
      "ĠYes": 2915,
      "Ġinteres": 2916,
      "Ġcompu": 2917,
      "Ġleading": 2918,
      "ills": 2919,
      "Ġdifferences": 2920,
      "ĠMi": 2921,
      "oman": 2922,
      "irm": 2923,
      "ades": 2924,
      "Ġtook": 2925,
      "Ġdepends": 2926,
      "ĠWorld": 2927,
      "isions": 2928,
      "ĠRuss": 2929,
      "tra": 2930,
      "Ġdiag": 2931,
      "Ġann": 2932,
      "Ġdidn": 2933,
      "use": 2934,
      "Ġcommunic": 2935,
      "Ġrequirements": 2936,
      "onic": 2937,
      "Ġsoci": 2938,
      "fect": 2939,
      "play": 2940,
      "ĠBl": 2941,
      "Ġpopular": 2942,
      "anish": 2943,
      "ĠÃ": 2944,
      "train": 2945,
      "Ġultim": 2946,
      "Ġclim": 2947,
      "xy": 2948,
      "Ġadditional": 2949,
      "Ġmom": 2950,
      "ĠStep": 2951,
      "Ġisn": 2952,
      "Ġthought": 2953,
      "Ġspir": 2954,
      "Ġincreased": 2955,
      "}^{": 2956,
      "iction": 2957,
      "Ġfinancial": 2958,
      "Ġinvolving": 2959,
      "Ġapproxim": 2960,
      "Ġful": 2961,
      "Ġregul": 2962,
      "Ġcrucial": 2963,
      "fac": 2964,
      "Ġreturn": 2965,
      "Ġconver": 2966,
      "aring": 2967,
      "Output": 2968,
      "Ġissues": 2969,
      "Ġdisease": 2970,
      "Ġsimple": 2971,
      "Ġrepresented": 2972,
      "Ġinters": 2973,
      "Ġgenetic": 2974,
      "à¯įà®": 2975,
      "ried": 2976,
      "ily": 2977,
      "aper": 2978,
      "Ġorganiz": 2979,
      "Ġactual": 2980,
      "Ð¾": 2981,
      "Ġachieve": 2982,
      "tud": 2983,
      "Ġoverall": 2984,
      "like": 2985,
      "Ġsuper": 2986,
      "Ġshows": 2987,
      "ĠAm": 2988,
      "Ġadop": 2989,
      "ections": 2990,
      "Ġwind": 2991,
      "alu": 2992,
      "Ġcenter": 2993,
      "Ġunc": 2994,
      "ĠChina": 2995,
      "Ġheav": 2996,
      "**:Ċ": 2997,
      "Ġforce": 2998,
      "Ġarrange": 2999,
      "Ġdesigned": 3000,
      "Ġtouch": 3001,
      "Ġeffectively": 3002,
      "table": 3003,
      "ped": 3004,
      "tig": 3005,
      "iddle": 3006,
      "Ġemphas": 3007,
      "Ġrati": 3008,
      "hind": 3009,
      "Ġdev": 3010,
      "Ġaction": 3011,
      "Ġlarger": 3012,
      "ĠRep": 3013,
      "Ġcritical": 3014,
      "anced": 3015,
      "izes": 3016,
      "Ð°": 3017,
      "arc": 3018,
      "Ġloss": 3019,
      "Ġstop": 3020,
      "Ġincor": 3021,
      "hical": 3022,
      "Ġeffici": 3023,
      "Ġscientific": 3024,
      "ographic": 3025,
      "Ġdefinitive": 3026,
      "ny": 3027,
      "ĠChinese": 3028,
      "urch": 3029,
      "Ġâ": 3030,
      "pha": 3031,
      "Ġlove": 3032,
      "Ġhalf": 3033,
      "Ġsymp": 3034,
      "itual": 3035,
      "Ġclos": 3036,
      "ĠMy": 3037,
      "Ã¡": 3038,
      "wh": 3039,
      "Ġmemory": 3040,
      "Ġill": 3041,
      "gre": 3042,
      "Ġlittle": 3043,
      "ĠSud": 3044,
      "Ġthroughout": 3045,
      "imi": 3046,
      "ras": 3047,
      "ead": 3048,
      "Ġoptim": 3049,
      "oll": 3050,
      "order": 3051,
      "itch": 3052,
      "Ġmatter": 3053,
      "uary": 3054,
      "sp": 3055,
      "mber": 3056,
      "arry": 3057,
      "Ġthemselves": 3058,
      "Ġallows": 3059,
      "Ġhere": 3060,
      "TIONS": 3061,
      "Ġlate": 3062,
      "nos": 3063,
      "Ġprice": 3064,
      "Ġblack": 3065,
      "cape": 3066,
      "wers": 3067,
      "ucle": 3068,
      "Ġten": 3069,
      "à³": 3070,
      "DI": 3071,
      "aur": 3072,
      "ĠFind": 3073,
      "Ġformula": 3074,
      "oming": 3075,
      "Ġconcept": 3076,
      "Ðµ": 3077,
      "abilities": 3078,
      "Ġdecre": 3079,
      "×ķ": 3080,
      "Ġimmedi": 3081,
      "Ġneeded": 3082,
      "Ġclose": 3083,
      "Ġreve": 3084,
      "ĠPh": 3085,
      "ili": 3086,
      "Ġwriting": 3087,
      "Ġintro": 3088,
      "Ġconstant": 3089,
      "{a": 3090,
      "Ġorigin": 3091,
      "Ġcontains": 3092,
      "Ġlive": 3093,
      "Ġbehind": 3094,
      "atives": 3095,
      "takes": 3096,
      "PTIONS": 3097,
      "Ġarri": 3098,
      "Ã³": 3099,
      "Ġroots": 3100,
      "Ġsaw": 3101,
      "àª¾": 3102,
      "})": 3103,
      "ĠWith": 3104,
      "Ġidentity": 3105,
      "×Ļ": 3106,
      "Ġanimals": 3107,
      "Ġcoll": 3108,
      "Ġcivil": 3109,
      "Ġbegin": 3110,
      "àŃ": 3111,
      "Ġadapt": 3112,
      "Ġchallenge": 3113,
      "aken": 3114,
      "Ġhighest": 3115,
      "Ġentirely": 3116,
      "Ġdocument": 3117,
      "Ġbound": 3118,
      "Ġtransition": 3119,
      "Ġcommit": 3120,
      "Ġimprove": 3121,
      "nomial": 3122,
      "nput": 3123,
      "input": 3124,
      "Ġevalu": 3125,
      "Ġapplications": 3126,
      "yl": 3127,
      "ugg": 3128,
      "Ġrequired": 3129,
      "Ġartis": 3130,
      "imal": 3131,
      "Ġsong": 3132,
      "Ġfederal": 3133,
      "iver": 3134,
      "Ġart": 3135,
      "Simplify": 3136,
      "Ġstrategies": 3137,
      "Ġharm": 3138,
      "Ġcop": 3139,
      "ental": 3140,
      "Ġtakes": 3141,
      "Ġproced": 3142,
      "Ġey": 3143,
      "-l": 3144,
      "(n": 3145,
      "ĠSolve": 3146,
      "Ġreplacement": 3147,
      "Ġmanagement": 3148,
      "average": 3149,
      "Ġessentially": 3150,
      "enting": 3151,
      "Ġspeed": 3152,
      "onom": 3153,
      "Ġsays": 3154,
      "Ġopen": 3155,
      "used": 3156,
      "dr": 3157,
      "Ġonce": 3158,
      "Ġsubsequ": 3159,
      "Ġinfluenced": 3160,
      "Ġwoman": 3161,
      "Ġsens": 3162,
      "resp": 3163,
      "Ġactive": 3164,
      "Ġtemperature": 3165,
      "Ġdetermi": 3166,
      "Ġgrad": 3167,
      "Ġseen": 3168,
      "oku": 3169,
      "Ġbox": 3170,
      "etermine": 3171,
      "Ø¨": 3172,
      "Ġinterpret": 3173,
      "Ġstudies": 3174,
      "Ġweight": 3175,
      "Ġcourt": 3176,
      "ĠAll": 3177,
      "ĠItal": 3178,
      "ĠOne": 3179,
      "ansion": 3180,
      "Ġanaly": 3181,
      "Ġmac": 3182,
      "Ġcircumst": 3183,
      "hood": 3184,
      "Ġprofessional": 3185,
      "ĠSc": 3186,
      "ĠComm": 3187,
      "Ġmiss": 3188,
      "Ġwhite": 3189,
      "Ġwatch": 3190,
      ".ĊĊĊ": 3191,
      "ored": 3192,
      "Ġaud": 3193,
      "-h": 3194,
      "Ġpor": 3195,
      "Ġliving": 3196,
      "Ġofficial": 3197,
      "hreat": 3198,
      "threat": 3199,
      "ĠMay": 3200,
      "Ġhimself": 3201,
      "Ġcou": 3202,
      "**(-": 3203,
      "Ġamount": 3204,
      "ĠAustr": 3205,
      "Ġ/": 3206,
      "Ġinstead": 3207,
      "Ġstatement": 3208,
      "where": 3209,
      "xed": 3210,
      "Ġcolor": 3211,
      "Ġmaximum": 3212,
      "With": 3213,
      "ef": 3214,
      "Ġoccurs": 3215,
      "Ġ>": 3216,
      "ÙĬ": 3217,
      "eat": 3218,
      "ĠRo": 3219,
      "Ġdistribution": 3220,
      "entr": 3221,
      "Ġheart": 3222,
      "tan": 3223,
      "output": 3224,
      "equiv": 3225,
      "Ġouts": 3226,
      "Hey": 3227,
      "Ġcover": 3228,
      "Ġpopulations": 3229,
      "??": 3230,
      "Ġshare": 3231,
      "Ġparts": 3232,
      "nf": 3233,
      "Ġstructural": 3234,
      "Ġsecurity": 3235,
      "imens": 3236,
      "Ġconcep": 3237,
      "Ġdeep": 3238,
      "ĠÚ©": 3239,
      "Ġroot": 3240,
      "ãĢ": 3241,
      "adem": 3242,
      "Ġearlier": 3243,
      "Ġoptions": 3244,
      "Con": 3245,
      "lands": 3246,
      "Ġcircumstances": 3247,
      "Ġperfect": 3248,
      "Ġsimultaneously": 3249,
      "pro": 3250,
      "Ġtoday": 3251,
      "tructure": 3252,
      "ises": 3253,
      "Ġoffice": 3254,
      "Ġarti": 3255,
      "rite": 3256,
      "taking": 3257,
      "Ġcompon": 3258,
      "nth": 3259,
      "Ġreli": 3260,
      "Ġaverage": 3261,
      "Ġwhole": 3262,
      "Ġcharacteristics": 3263,
      "Ġpiec": 3264,
      "inc": 3265,
      "Ġimplic": 3266,
      "Ġwent": 3267,
      "Ġyes": 3268,
      "Ġcombined": 3269,
      "ĠSudoku": 3270,
      "Ġcontemp": 3271,
      "Ġson": 3272,
      "ĠGen": 3273,
      "Ġplease": 3274,
      "Ġassociated": 3275,
      "Ġanswers": 3276,
      "Ġsolutions": 3277,
      "Ġmedia": 3278,
      "Ġsold": 3279,
      "ĠSch": 3280,
      "eting": 3281,
      "Ġlonger": 3282,
      "Ġlay": 3283,
      ")\\)": 3284,
      "++++++++++++++++": 3285,
      "Ġconstrain": 3286,
      "Ġsymb": 3287,
      "Ġblue": 3288,
      "Ġcolon": 3289,
      "uments": 3290,
      "ĠØ¯": 3291,
      "Ġtheoretical": 3292,
      "Ġrock": 3293,
      "ode": 3294,
      "Ġgenerate": 3295,
      "Ġstatus": 3296,
      "Ġcub": 3297,
      "lation": 3298,
      "Ġcross": 3299,
      "acts": 3300,
      "Ġaltern": 3301,
      "Ġactivity": 3302,
      "Ġ`": 3303,
      "ilt": 3304,
      "Ġfoot": 3305,
      "If": 3306,
      "Ġà´": 3307,
      "Ġint": 3308,
      "Ġtour": 3309,
      "erve": 3310,
      "Ġprefer": 3311,
      "Ġdate": 3312,
      "Ġtechnical": 3313,
      "Ġdefinition": 3314,
      "ery": 3315,
      "Ġchoice": 3316,
      "agraph": 3317,
      "Ġservice": 3318,
      "Ġsix": 3319,
      "Ġmechanism": 3320,
      "Ġsubstanti": 3321,
      "Ġpatients": 3322,
      "ĠPri": 3323,
      "ada": 3324,
      "igns": 3325,
      "oi": 3326,
      "Ġstrategy": 3327,
      "Ġcal": 3328,
      "anies": 3329,
      "dom": 3330,
      "Ġdomin": 3331,
      "Ġcapac": 3332,
      "Ġurban": 3333,
      "cient": 3334,
      "Ġmonths": 3335,
      "ĠJapanese": 3336,
      ")?": 3337,
      "Ġconnection": 3338,
      "Ġlooking": 3339,
      "ov": 3340,
      "Ġtechniques": 3341,
      "ians": 3342,
      "ĠLa": 3343,
      "vention": 3344,
      "****Ċ": 3345,
      "Ġindustr": 3346,
      "hol": 3347,
      "Ġnamed": 3348,
      "Ġsound": 3349,
      "Ġpicked": 3350,
      "Ġnav": 3351,
      "!!": 3352,
      "ĠKing": 3353,
      "Ġfall": 3354,
      "ender": 3355,
      "Ġinher": 3356,
      "Ġschol": 3357,
      "FF": 3358,
      "Ġfrac": 3359,
      "Ġmid": 3360,
      "Ġthreat": 3361,
      "alpha": 3362,
      "Ġindependent": 3363,
      "Ġexec": 3364,
      "Ġappl": 3365,
      "Ġarchit": 3366,
      "Ġep": 3367,
      "Ġeducation": 3368,
      "ĠHer": 3369,
      "Ġmolec": 3370,
      "Ġfundamentally": 3371,
      "Ġfavor": 3372,
      "Ġ--": 3373,
      "Ġfully": 3374,
      "Ġinvest": 3375,
      "Ġrecomm": 3376,
      "Ġprevent": 3377,
      "Ġinside": 3378,
      "Ġpub": 3379,
      "rest": 3380,
      "]Ċ": 3381,
      "Ġprote": 3382,
      "tention": 3383,
      ":**": 3384,
      "most": 3385,
      "Ġtold": 3386,
      "Ġancient": 3387,
      "Ġslow": 3388,
      "Ġconvers": 3389,
      "Ġrap": 3390,
      "Ġglobal": 3391,
      "let": 3392,
      "Ġclin": 3393,
      "ama": 3394,
      ":**Ċ": 3395,
      "ping": 3396,
      "Ġexpansion": 3397,
      "tically": 3398,
      "Ġsouth": 3399,
      "Ġevol": 3400,
      "sing": 3401,
      "eor": 3402,
      "Ġultimately": 3403,
      "Ġconcentr": 3404,
      ",Ċ": 3405,
      "Ġunderlying": 3406,
      "=\\": 3407,
      "eli": 3408,
      "Ġvolume": 3409,
      "Ġchalleng": 3410,
      "ĠGerman": 3411,
      "Ġcat": 3412,
      ").Ċ": 3413,
      "Ġcomplexity": 3414,
      "Ġnor": 3415,
      "Ġspecialized": 3416,
      "Ġexami": 3417,
      "Ġnorth": 3418,
      "Ġgoes": 3419,
      "ubstitu": 3420,
      "Ġprinciple": 3421,
      "Å¿": 3422,
      "ĠII": 3423,
      "omen": 3424,
      "Ġrule": 3425,
      "ĠEarth": 3426,
      "Ġcard": 3427,
      "à¦°": 3428,
      "**:": 3429,
      "Ġnucle": 3430,
      "à¤¿": 3431,
      "Ġpast": 3432,
      "ecting": 3433,
      "atically": 3434,
      "Ġconduc": 3435,
      "ĠGu": 3436,
      "à§ĩ": 3437,
      "Ġserves": 3438,
      "Ġprior": 3439,
      "(Ċ": 3440,
      "aul": 3441,
      "Ġhappens": 3442,
      "Ġsimply": 3443,
      "It": 3444,
      "rew": 3445,
      "Ġlack": 3446,
      "Ġens": 3447,
      "bon": 3448,
      "Ġfem": 3449,
      "Ġreport": 3450,
      "Ġlands": 3451,
      "Ġpropos": 3452,
      "Ġmatch": 3453,
      "-re": 3454,
      "Ġsources": 3455,
      "Ġframeworks": 3456,
      "Ġquad": 3457,
      "Ġtraditions": 3458,
      "ĠRoman": 3459,
      "Ġprogram": 3460,
      "onal": 3461,
      "Ġavoid": 3462,
      "ued": 3463,
      "Ġresources": 3464,
      "Ġsubs": 3465,
      "Ġrow": 3466,
      "Ġgetting": 3467,
      "toms": 3468,
      "Which": 3469,
      "LE": 3470,
      "ĠMan": 3471,
      "Ø§ÙĨ": 3472,
      "Why": 3473,
      "Ġeducational": 3474,
      "Ġtranslate": 3475,
      "ĠYork": 3476,
      "Ġtaking": 3477,
      "know": 3478,
      "Ġagree": 3479,
      "Ġadministrative": 3480,
      "inf": 3481,
      "áŁ": 3482,
      "Ġbuy": 3483,
      "Ġtele": 3484,
      "Ġquality": 3485,
      "Ġdenomin": 3486,
      "\\pi": 3487,
      "Ġsentences": 3488,
      "ustry": 3489,
      "Ġbad": 3490,
      "Ġsil": 3491,
      "Ġefficiency": 3492,
      "Ġplaces": 3493,
      "ĠMr": 3494,
      "Ġtry": 3495,
      "Ġrespective": 3496,
      "ĠPol": 3497,
      "Therefore": 3498,
      "Ġnecessary": 3499,
      "ground": 3500,
      "nary": 3501,
      "Ġcontent": 3502,
      "ĠUni": 3503,
      "ired": 3504,
      "Ġcontinued": 3505,
      "Ġexpand": 3506,
      "ished": 3507,
      "Ġpreserv": 3508,
      "ĠÙĪ": 3509,
      "Ġable": 3510,
      "itionally": 3511,
      "Ġexisting": 3512,
      "Ġanimal": 3513,
      "ĠChar": 3514,
      "Ġheight": 3515,
      "omb": 3516,
      "ĠArticle": 3517,
      ")*(": 3518,
      "ĠGre": 3519,
      "Ġarchitect": 3520,
      "Ġmention": 3521,
      "Ġproduce": 3522,
      "[A": 3523,
      "Ġcareer": 3524,
      "_DI": 3525,
      "_DIFF": 3526,
      "Ġcosts": 3527,
      "?\"": 3528,
      "Ġsustain": 3529,
      "Ġstreng": 3530,
      "Ġwhose": 3531,
      "Ġattack": 3532,
      "Ġproducts": 3533,
      "gn": 3534,
      "Ġce": 3535,
      "[Q": 3536,
      "rastructure": 3537,
      "Ġgreatest": 3538,
      "Ø´": 3539,
      "Ġpercent": 3540,
      "Ġsense": 3541,
      "ÑĤ": 3542,
      "(a": 3543,
      "Ġtechnology": 3544,
      "Ġbalance": 3545,
      "ĠAlex": 3546,
      "Ġprot": 3547,
      "NO": 3548,
      "Ġparents": 3549,
      "Ġcompletely": 3550,
      "Ġangle": 3551,
      "Ġintroduc": 3552,
      "ging": 3553,
      "Ġreturns": 3554,
      "Ġextreme": 3555,
      "Ġband": 3556,
      "iet": 3557,
      "Ġdog": 3558,
      "Ġcontemporary": 3559,
      "arian": 3560,
      "à§į": 3561,
      "Ġaccount": 3562,
      "{b": 3563,
      "Ġact": 3564,
      "Ġformal": 3565,
      "^{-": 3566,
      "Ġconsiderations": 3567,
      "Ġquick": 3568,
      "Ġinstance": 3569,
      "ĠSpanish": 3570,
      "Ġgreen": 3571,
      "aft": 3572,
      "lor": 3573,
      "Ġreceived": 3574,
      "leep": 3575,
      "Exp": 3576,
      "uel": 3577,
      "eth": 3578,
      "ream": 3579,
      "Ġpolice": 3580,
      "Ġcount": 3581,
      "Ġscen": 3582,
      "ĠOr": 3583,
      "Ġmess": 3584,
      "Ġinfrastructure": 3585,
      "Ġpolynomial": 3586,
      "de": 3587,
      "While": 3588,
      "Ø²": 3589,
      "Ġsuggest": 3590,
      "Ġinj": 3591,
      ")\\": 3592,
      "Ð¸": 3593,
      "Ġalone": 3594,
      "Ġground": 3595,
      "ising": 3596,
      "Ġindustry": 3597,
      "Ġproviding": 3598,
      "Ġengine": 3599,
      "Ġselec": 3600,
      "Ġsometimes": 3601,
      "Ġratio": 3602,
      "Ġsure": 3603,
      "Ġsubject": 3604,
      "Ġlocated": 3605,
      "Ġapproximately": 3606,
      "Ġball": 3607,
      "uly": 3608,
      "Ġformer": 3609,
      "Ġvill": 3610,
      "Ġpen": 3611,
      "Ġappropri": 3612,
      "Ġteacher": 3613,
      "force": 3614,
      "à¤°": 3615,
      "Ġintegration": 3616,
      "Ġhol": 3617,
      "Ġinves": 3618,
      "ĠAmerica": 3619,
      "Ġallowed": 3620,
      "Ġcompanies": 3621,
      "ĠDr": 3622,
      "Ġplayed": 3623,
      "Ġgirl": 3624,
      "Ġestim": 3625,
      "wo": 3626,
      "wise": 3627,
      "Ġplants": 3628,
      "Ġshap": 3629,
      "Ġgas": 3630,
      "Ġcombination": 3631,
      "minal": 3632,
      "ided": 3633,
      "respond": 3634,
      "sum": 3635,
      "illi": 3636,
      "leq": 3637,
      "Ġessential": 3638,
      "}$,": 3639,
      "Ġconsum": 3640,
      "ĠPres": 3641,
      "ĠOutput": 3642,
      "Ġphoto": 3643,
      "\\frac": 3644,
      "Ġdescribed": 3645,
      "Ġseason": 3646,
      "EX": 3647,
      "Ġprotection": 3648,
      "Ġgets": 3649,
      "Ġpersp": 3650,
      "Ġfel": 3651,
      "àª¾àª": 3652,
      "eration": 3653,
      "*(": 3654,
      "Ġelement": 3655,
      "Ġservices": 3656,
      "Ġlaws": 3657,
      "Ġhor": 3658,
      "Ġrestric": 3659,
      "Ġhypoth": 3660,
      "Ġ)": 3661,
      "ki": 3662,
      "itiz": 3663,
      "Ġbrother": 3664,
      "Ġoccurred": 3665,
      "{(": 3666,
      "Ġmedic": 3667,
      "Ġactivities": 3668,
      "Ġchemical": 3669,
      "Ġremaining": 3670,
      "Ġculture": 3671,
      "{-": 3672,
      "Ġdefined": 3673,
      "ercial": 3674,
      "Your": 3675,
      "\\).": 3676,
      "Ġcommunities": 3677,
      "Ġpolicies": 3678,
      "Ġborn": 3679,
      "Ġappe": 3680,
      "iring": 3681,
      "Ġwife": 3682,
      "ĠRepublic": 3683,
      "Ġimplications": 3684,
      ")}": 3685,
      "Ġparagraph": 3686,
      "Ġheld": 3687,
      "cean": 3688,
      "ros": 3689,
      "texts": 3690,
      "zy": 3691,
      "Ġbasic": 3692,
      "Ġcommercial": 3693,
      "Ġpresence": 3694,
      "Ġreduced": 3695,
      "=\"": 3696,
      "Ġmis": 3697,
      "Ġcampa": 3698,
      "Ġtraining": 3699,
      "Ġtown": 3700,
      "idge": 3701,
      "Ġoutside": 3702,
      "Ġlabor": 3703,
      "Ġtransformation": 3704,
      "Ġjur": 3705,
      "Ġvic": 3706,
      "Ġgeomet": 3707,
      "Ġwide": 3708,
      "Ġ\\).ĊĊ": 3709,
      "_A": 3710,
      "Ġperiods": 3711,
      "portun": 3712,
      "Ġmic": 3713,
      "\">": 3714,
      "Ġmaterials": 3715,
      "Ġregional": 3716,
      "ĠPlease": 3717,
      "Ġversus": 3718,
      "orting": 3719,
      "ict": 3720,
      "mily": 3721,
      "à¥Ģ": 3722,
      "artment": 3723,
      "Ġfish": 3724,
      "à±į": 3725,
      "nov": 3726,
      "Ġphen": 3727,
      "Ġlearning": 3728,
      "Ġdistinction": 3729,
      "Ġconstitutional": 3730,
      "Ġstatis": 3731,
      "Ġremo": 3732,
      "Ġcauses": 3733,
      "Ġtranslation": 3734,
      "Ġsubsequent": 3735,
      "ĠTherefore": 3736,
      "ãģ®": 3737,
      "Ġhappen": 3738,
      "Ġcorrespond": 3739,
      "hers": 3740,
      "Ġcontexts": 3741,
      "Ġlines": 3742,
      ".g": 3743,
      "met": 3744,
      "}(": 3745,
      "Ġpic": 3746,
      "ressive": 3747,
      "ara": 3748,
      "Ġenhan": 3749,
      "pecially": 3750,
      "da": 3751,
      "bor": 3752,
      "tend": 3753,
      "Ġinstitutional": 3754,
      "âĢĵ": 3755,
      "ming": 3756,
      "Ġrapid": 3757,
      "Ġstay": 3758,
      "inal": 3759,
      "Ġactions": 3760,
      "Ġadj": 3761,
      "Ġinequ": 3762,
      "Ġque": 3763,
      "Ġlocation": 3764,
      "Ġissue": 3765,
      "imin": 3766,
      "lim": 3767,
      "ĠContext": 3768,
      "Ġsubstantial": 3769,
      "Ġsociety": 3770,
      "ague": 3771,
      "hern": 3772,
      "abor": 3773,
      "ert": 3774,
      "utive": 3775,
      "hous": 3776,
      "Ġpoor": 3777,
      "Ġsell": 3778,
      "ĠCent": 3779,
      "-w": 3780,
      "lled": 3781,
      "Ġpow": 3782,
      "Ġseparate": 3783,
      "Ġdynamics": 3784,
      "Ġopportun": 3785,
      "OPTIONS": 3786,
      "Ġoption": 3787,
      "Ġcounter": 3788,
      "Ġbelief": 3789,
      "_B": 3790,
      "Ġboy": 3791,
      "anger": 3792,
      "Ġaccording": 3793,
      "Ġinvestig": 3794,
      "Ġdou": 3795,
      "{A": 3796,
      "ifying": 3797,
      "Ġfollows": 3798,
      "Ġà¤ķ": 3799,
      "ailed": 3800,
      "Ġpric": 3801,
      "ils": 3802,
      "andom": 3803,
      "Ġcontinue": 3804,
      "alle": 3805,
      "ni": 3806,
      "taken": 3807,
      "ĠCo": 3808,
      "Ġasked": 3809,
      "aughter": 3810,
      "itation": 3811,
      "×ķ×": 3812,
      "Ġgain": 3813,
      "Ġobject": 3814,
      "unch": 3815,
      "ana": 3816,
      "Ġminimum": 3817,
      "ait": 3818,
      "ĠEach": 3819,
      "Ġfill": 3820,
      "Ġreleased": 3821,
      "Ġallowing": 3822,
      "Ġbenefits": 3823,
      "Ġequations": 3824,
      "Ġmeet": 3825,
      "resh": 3826,
      "Ġsi": 3827,
      "vant": 3828,
      "Ġsafety": 3829,
      "ĠEmp": 3830,
      "Ġformed": 3831,
      "Ġfire": 3832,
      "ĠWestern": 3833,
      "Ġuses": 3834,
      "Ġà¬": 3835,
      "Ġcogn": 3836,
      "Ġcook": 3837,
      "ĠCity": 3838,
      "toc": 3839,
      "aphy": 3840,
      "ĠNe": 3841,
      "ourt": 3842,
      "Ġbill": 3843,
      "'d": 3844,
      "how": 3845,
      "bing": 3846,
      "rown": 3847,
      "lin": 3848,
      "Ġdrug": 3849,
      "Ġproject": 3850,
      "ference": 3851,
      "Ġsun": 3852,
      "Ġincludes": 3853,
      "outhern": 3854,
      "Ġprevious": 3855,
      "Ġdeveloping": 3856,
      "Ġdenominator": 3857,
      "Ġpred": 3858,
      "align": 3859,
      "Ġcomplic": 3860,
      "\".Ċ": 3861,
      "Ġlost": 3862,
      "âĢĮ": 3863,
      "Ġcomparative": 3864,
      "Ġexpected": 3865,
      "Ġcapacity": 3866,
      "Ġserved": 3867,
      "ĠOptions": 3868,
      "Ġliter": 3869,
      "Ġwasn": 3870,
      "-year": 3871,
      "Ġcancer": 3872,
      "Ġsevere": 3873,
      "Ġspeak": 3874,
      "Ġtarget": 3875,
      "tick": 3876,
      "Ġregulatory": 3877,
      "Please": 3878,
      "ĠSec": 3879,
      "Ġphr": 3880,
      "Ġones": 3881,
      "Ġdoing": 3882,
      "[EX": 3883,
      "Ġpositions": 3884,
      "Ġlegis": 3885,
      "Ġcomputer": 3886,
      "Ġagric": 3887,
      "à¤¿à¤": 3888,
      "Ġspiritual": 3889,
      "Ġfigure": 3890,
      "Ġeventually": 3891,
      "Ġspread": 3892,
      "Ġcities": 3893,
      "astic": 3894,
      "Input": 3895,
      "Ġprograms": 3896,
      "Ġclinical": 3897,
      "Ġthinking": 3898,
      "pose": 3899,
      "ĠAustral": 3900,
      "Ġsexual": 3901,
      "bert": 3902,
      "Ġexc": 3903,
      "AS": 3904,
      "Ġtells": 3905,
      "tial": 3906,
      "Ġmind": 3907,
      "ounts": 3908,
      "thern": 3909,
      "asting": 3910,
      "ĠCal": 3911,
      "Ġteach": 3912,
      "ception": 3913,
      "Ġdecisions": 3914,
      "olute": 3915,
      "Ġchallenging": 3916,
      "Ġsem": 3917,
      "Ġflu": 3918,
      "Ġjus": 3919,
      "Ġespecially": 3920,
      "Ġlot": 3921,
      "Ġdiss": 3922,
      "vision": 3923,
      "ĠNow": 3924,
      "Ġtend": 3925,
      "Ġfeet": 3926,
      "Ġmeasures": 3927,
      "Ġmatrix": 3928,
      "Ġturn": 3929,
      "Ġcommand": 3930,
      "Ġdemand": 3931,
      "Ġmoment": 3932,
      "ĠMovie": 3933,
      "$:Ċ": 3934,
      "ER": 3935,
      "itle": 3936,
      "Ġtable": 3937,
      "Ġstrugg": 3938,
      "Ġbot": 3939,
      "answer": 3940,
      "Ġconflict": 3941,
      "Ġforeign": 3942,
      "Ġcolle": 3943,
      "Ġrules": 3944,
      "tructions": 3945,
      "ĠFrance": 3946,
      "Ġtaken": 3947,
      "Ġupon": 3948,
      "Ġfoundation": 3949,
      "off": 3950,
      "Ġstress": 3951,
      "Ġinternal": 3952,
      "umb": 3953,
      "ites": 3954,
      "Ġjour": 3955,
      "'ll": 3956,
      ">Ċ": 3957,
      "uries": 3958,
      "ĠUniversity": 3959,
      "(y": 3960,
      "ossible": 3961,
      "Ġheat": 3962,
      "}.": 3963,
      "Ġcontrast": 3964,
      "__": 3965,
      "ancy": 3966,
      "Ġfollowed": 3967,
      "Ġefforts": 3968,
      "Ġmut": 3969,
      "Ġneigh": 3970,
      "Ġwrong": 3971,
      "Ġassum": 3972,
      "ĠArab": 3973,
      "Ġsymptoms": 3974,
      "Ġindustrial": 3975,
      "ĠMus": 3976,
      "Ġeat": 3977,
      "Ġconsidering": 3978,
      "encing": 3979,
      "Ġusually": 3980,
      "Ġevolutionary": 3981,
      "Ġscience": 3982,
      "Ġconven": 3983,
      "Ġdiscover": 3984,
      "Ġleave": 3985,
      "Ġzero": 3986,
      "Ġbuilt": 3987,
      "oo": 3988,
      "ĠIndian": 3989,
      "à®¿": 3990,
      "Ġemb": 3991,
      "\\left": 3992,
      "ocratic": 3993,
      "Ġcommunication": 3994,
      "ĠThen": 3995,
      "arent": 3996,
      "Ġdivide": 3997,
      "poses": 3998,
      "thous": 3999,
      "Ġorganization": 4000,
      "ĠNational": 4001,
      "umn": 4002,
      "Ġcand": 4003,
      "ĺħ": 4004,
      "Ġmoving": 4005,
      "asons": 4006,
      "à¦¾à¦": 4007,
      "ĠHere": 4008,
      "Ġdepending": 4009,
      "Ġrelatively": 4010,
      "Ġacid": 4011,
      "bur": 4012,
      "oti": 4013,
      "cal": 4014,
      "\\]Ċ": 4015,
      "ĠChristian": 4016,
      "Ġincreases": 4017,
      "ĠMed": 4018,
      "ĠAng": 4019,
      "Ġtravel": 4020,
      "Ġprivate": 4021,
      "Ġcoeff": 4022,
      "Ġnames": 4023,
      "Ġrandom": 4024,
      "Ġcareful": 4025,
      "Ġwanted": 4026,
      "anch": 4027,
      "-r": 4028,
      "ners": 4029,
      "oli": 4030,
      "oor": 4031,
      "ternal": 4032,
      "Ġchoices": 4033,
      "Ġexperiences": 4034,
      "Ġplanning": 4035,
      "Ġseems": 4036,
      "Ġinitially": 4037,
      "Ġexpect": 4038,
      "Ġstandards": 4039,
      "Ġsource": 4040,
      "ĠBC": 4041,
      "Ġregard": 4042,
      "Ġdigits": 4043,
      "Ġresistance": 4044,
      "Ø¹": 4045,
      "what": 4046,
      "$$": 4047,
      "tual": 4048,
      "Ġconcern": 4049,
      "Ġunivers": 4050,
      "ĠPersonX": 4051,
      "ondon": 4052,
      "Ġthous": 4053,
      "Ġgraph": 4054,
      "ultural": 4055,
      "Ġcusto": 4056,
      "ĠIndia": 4057,
      "Ġpsychological": 4058,
      "Ġlimitations": 4059,
      "att": 4060,
      "room": 4061,
      "Ġweak": 4062,
      "reek": 4063,
      "Ġdamage": 4064,
      "Ġra": 4065,
      "Ġdram": 4066,
      "Ġmodels": 4067,
      "uth": 4068,
      "Ġcapabilities": 4069,
      "Ġhelps": 4070,
      "Ġsleep": 4071,
      "Ġcognitive": 4072,
      "Ġacadem": 4073,
      "nam": 4074,
      "Ġlanguages": 4075,
      "ĠIslam": 4076,
      "Ġinnov": 4077,
      "mission": 4078,
      "enn": 4079,
      "new": 4080,
      ").ĊĊ": 4081,
      "Ġconsequ": 4082,
      "ĠBudd": 4083,
      "Ġmount": 4084,
      "ean": 4085,
      "acting": 4086,
      "Ġvisit": 4087,
      "Ġche": 4088,
      "(t": 4089,
      "Ġstarted": 4090,
      "<ref": 4091,
      "ĠSw": 4092,
      "cy": 4093,
      "Ġwants": 4094,
      "Ġjuris": 4095,
      "Ġpun": 4096,
      "Ġpurposes": 4097,
      "Ġwort": 4098,
      "geq": 4099,
      "ĠTheir": 4100,
      "Ġapplication": 4101,
      "nter": 4102,
      "Ġelse": 4103,
      "à¯ģ": 4104,
      "fin": 4105,
      "hine": 4106,
      "encies": 4107,
      "Ġdiscuss": 4108,
      "×Ļ×": 4109,
      "Ġtro": 4110,
      "Ġdirection": 4111,
      "Ġautom": 4112,
      "Ġidea": 4113,
      "ĠDav": 4114,
      "ĠBo": 4115,
      "Ġgoal": 4116,
      ")).": 4117,
      "ops": 4118,
      "Ġappropriate": 4119,
      "Ġabsolute": 4120,
      "ha": 4121,
      "Ġradius": 4122,
      "di": 4123,
      "gins": 4124,
      "Ġhon": 4125,
      "Ġnarr": 4126,
      "Ġking": 4127,
      "Ġcategories": 4128,
      "Ġcore": 4129,
      "light": 4130,
      "Ġmoved": 4131,
      "Ġban": 4132,
      "-i": 4133,
      "infty": 4134,
      "Ġcut": 4135,
      "ĠBar": 4136,
      "Ġreading": 4137,
      "Ġconserv": 4138,
      "Ġclimate": 4139,
      "Ġencoun": 4140,
      "à¦¿": 4141,
      "gg": 4142,
      "Ġnetwork": 4143,
      "Ġproduced": 4144,
      "ĠĠĠĠĠĠĠĠĠĠĠĠĠĠĠĠ": 4145,
      "Ġax": 4146,
      "Ġquanti": 4147,
      "Ġshape": 4148,
      "ĠAdd": 4149,
      "hic": 4150,
      "He": 4151,
      "Ġdial": 4152,
      "pmod": 4153,
      "Ġpatient": 4154,
      "Ġprocessing": 4155,
      "attle": 4156,
      "ĠMc": 4157,
      "Ġphenomen": 4158,
      "Ġcorrectly": 4159,
      "uses": 4160,
      "agon": 4161,
      "Ġstyle": 4162,
      "((": 4163,
      "Te": 4164,
      "Ġsqrt": 4165,
      "Ú¯": 4166,
      "Ġclean": 4167,
      "Ã¤": 4168,
      "gment": 4169,
      "Ġpurch": 4170,
      "Ġdemonstrated": 4171,
      "Reg": 4172,
      "uro": 4173,
      "Ġnavig": 4174,
      "{align": 4175,
      "Ġcontrad": 4176,
      "Ġhighly": 4177,
      "elds": 4178,
      "draw": 4179,
      "lated": 4180,
      "Ġemotional": 4181,
      "Ġlives": 4182,
      "Ġnecessarily": 4183,
      "Ġite": 4184,
      "Ġobjects": 4185,
      "Ġdead": 4186,
      "orial": 4187,
      "ĠJan": 4188,
      "urs": 4189,
      "Ġinequality": 4190,
      "ĠIr": 4191,
      "Ġenvironments": 4192,
      "ĠAss": 4193,
      "tingu": 4194,
      "Ġgave": 4195,
      "Ġcategory": 4196,
      "ĠAp": 4197,
      "Ġstrengt": 4198,
      "Ġstrength": 4199,
      "Ġmusical": 4200,
      "Ġpack": 4201,
      "Ġconstruction": 4202,
      "Ġ\\,": 4203,
      "umption": 4204,
      "Ġimplementation": 4205,
      "Ġformation": 4206,
      "ccording": 4207,
      "Ġinstr": 4208,
      "Ġincorpor": 4209,
      "Ġtechnological": 4210,
      "à±įà°": 4211,
      "Ġgrowing": 4212,
      "Ġtradition": 4213,
      "Ġsetting": 4214,
      "Ġfarm": 4215,
      "xygen": 4216,
      "Ġice": 4217,
      "ĠEngland": 4218,
      "Ġconcerns": 4219,
      "Ġfeed": 4220,
      "actor": 4221,
      "Ġbecoming": 4222,
      "ĠAct": 4223,
      "Ġresid": 4224,
      "ĠEl": 4225,
      ");Ċ": 4226,
      "Ġ\\((": 4227,
      "going": 4228,
      "ĠPe": 4229,
      "Ġcompare": 4230,
      "Ġstudent": 4231,
      ")$.": 4232,
      "eters": 4233,
      "Ġroad": 4234,
      "-st": 4235,
      "mosp": 4236,
      "],": 4237,
      "roduc": 4238,
      "Ġinstitutions": 4239,
      "asc": 4240,
      "Ġsatisf": 4241,
      "Ġdetermin": 4242,
      "à§įà¦": 4243,
      "Ġaccept": 4244,
      "Ġmur": 4245,
      "Ġoccup": 4246,
      "...Ċ": 4247,
      "à¤Ĥ": 4248,
      "Ġscenari": 4249,
      "Ġsurr": 4250,
      "Ġalmost": 4251,
      "à´¿": 4252,
      "Ġconfirm": 4253,
      "antic": 4254,
      ")--": 4255,
      "ĠLondon": 4256,
      "leg": 4257,
      "Ġsu": 4258,
      "Ans": 4259,
      "Ġworth": 4260,
      "Ġrecognition": 4261,
      "ĠGeor": 4262,
      "Ġguid": 4263,
      "Ġbenefit": 4264,
      "Ġpowers": 4265,
      "{c": 4266,
      "Ġvac": 4267,
      "Ġtransportation": 4268,
      "Ġmentioned": 4269,
      "Ġadvantages": 4270,
      "à®¿à®": 4271,
      "ĠDetermine": 4272,
      "Ġpublish": 4273,
      "ĠAb": 4274,
      "ĠĊĠĠĊ": 4275,
      "Ġski": 4276,
      "osure": 4277,
      "ĠWho": 4278,
      "Ġroles": 4279,
      "(f": 4280,
      "Ġcer": 4281,
      "ĠDuring": 4282,
      "Ġwonder": 4283,
      "Ġunit": 4284,
      "Ġrecommend": 4285,
      "ĠThat": 4286,
      "Ġdiagnos": 4287,
      "**(": 4288,
      "Ġengage": 4289,
      "gree": 4290,
      "Ġshared": 4291,
      "ĠReview": 4292,
      "Ġexerc": 4293,
      "undred": 4294,
      "Ġever": 4295,
      "Ġexperiment": 4296,
      "side": 4297,
      "Ġcalculate": 4298,
      "Ġpersist": 4299,
      "Ġbab": 4300,
      "Ġsop": 4301,
      "abel": 4302,
      "Ð½": 4303,
      "Ġclub": 4304,
      "Ġleaves": 4305,
      "Ġhosp": 4306,
      "Ġjurisdic": 4307,
      "Ġrespond": 4308,
      "Ġling": 4309,
      "ĠDes": 4310,
      "Ġsusp": 4311,
      "Ġalternative": 4312,
      "Ġpure": 4313,
      "ĠWest": 4314,
      "Ġmiles": 4315,
      "Ġatmosp": 4316,
      "Ġfeatures": 4317,
      "Ġdistingu": 4318,
      "Ġmeters": 4319,
      "ga": 4320,
      "ĠTom": 4321,
      "Ġconcepts": 4322,
      "hle": 4323,
      "Ġreflect": 4324,
      "ĠTur": 4325,
      "dro": 4326,
      "Ġpaper": 4327,
      "AC": 4328,
      "Ġdoll": 4329,
      "Ġisland": 4330,
      ")}{": 4331,
      "ores": 4332,
      "Ġincluded": 4333,
      "Ġsuit": 4334,
      "Ġobj": 4335,
      "ĠCourt": 4336,
      "Ġdemonstrates": 4337,
      "Ġstore": 4338,
      "Ġrecognized": 4339,
      "Ġinteractions": 4340,
      "ola": 4341,
      "ĠØ§ÙĦ": 4342,
      "Ġmember": 4343,
      "Ġgames": 4344,
      "ules": 4345,
      "Ġsal": 4346,
      "ĠDec": 4347,
      "tep": 4348,
      "Ġquickly": 4349,
      "Ġensure": 4350,
      "Ġexch": 4351,
      "fort": 4352,
      "Ġplaying": 4353,
      "Ġaudi": 4354,
      "phi": 4355,
      "Ġago": 4356,
      "ani": 4357,
      "ĠGod": 4358,
      "ĠFi": 4359,
      "ĠGive": 4360,
      "ĠSun": 4361,
      "Ġparam": 4362,
      "Ġcapture": 4363,
      "Ġhab": 4364,
      "Ġreduce": 4365,
      "ky": 4366,
      "Ġsystematic": 4367,
      "Ġmiddle": 4368,
      "Ġaspects": 4369,
      "osing": 4370,
      "ĠGo": 4371,
      "Ġfer": 4372,
      "Ġcriminal": 4373,
      "ĠPresident": 4374,
      "ĠSim": 4375,
      "ken": 4376,
      "loor": 4377,
      "Ġlearn": 4378,
      "ries": 4379,
      "tivity": 4380,
      "Ġpresident": 4381,
      "Ġresulting": 4382,
      "Ġcaused": 4383,
      "tered": 4384,
      "viet": 4385,
      "ĠEd": 4386,
      "wards": 4387,
      "ĠIntern": 4388,
      "sh": 4389,
      "Ġevolved": 4390,
      "Ġextensive": 4391,
      "riter": 4392,
      "ĠAfrican": 4393,
      "Ñģ": 4394,
      "Ġstability": 4395,
      "ĠState": 4396,
      "Ġsuggesting": 4397,
      "Ġapplied": 4398,
      "Ġfinding": 4399,
      "Ùģ": 4400,
      "Ġoperate": 4401,
      "Ġnovel": 4402,
      "Ġclaims": 4403,
      "Ġmanu": 4404,
      "Ġquar": 4405,
      "ael": 4406,
      "Ġphilosophical": 4407,
      "Ġdigital": 4408,
      "mathbb": 4409,
      "Ġdiverse": 4410,
      "Ġproperly": 4411,
      "uz": 4412,
      "althy": 4413,
      "Ġstra": 4414,
      "Ġcry": 4415,
      "Ġsteps": 4416,
      "uistic": 4417,
      "Ġmovements": 4418,
      "_{\\": 4419,
      "active": 4420,
      "oke": 4421,
      "gor": 4422,
      "ev": 4423,
      "Ġvariables": 4424,
      "Ġkilled": 4425,
      "cious": 4426,
      "Ġrac": 4427,
      "Ġyet": 4428,
      "Ġir": 4429,
      "ĠKore": 4430,
      "Ġconstruc": 4431,
      "fication": 4432,
      "hus": 4433,
      "Ġvide": 4434,
      "ĠÂ": 4435,
      "ĠMich": 4436,
      "Ġleadership": 4437,
      "lig": 4438,
      "Ġplane": 4439,
      "Ġestablishing": 4440,
      "Ġcritic": 4441,
      "Ġmoral": 4442,
      "{n": 4443,
      "ilies": 4444,
      "Ø§Ø±": 4445,
      "Ġbelong": 4446,
      "Ġmer": 4447,
      "ĠSup": 4448,
      "ĠNor": 4449,
      "Ġuncertain": 4450,
      "Ġartistic": 4451,
      "Ġoperates": 4452,
      "Ġgrand": 4453,
      "Ġserious": 4454,
      "ĠTrump": 4455,
      "Ġscope": 4456,
      "Ġsearch": 4457,
      "Ġbelieve": 4458,
      "ĠDis": 4459,
      "Ġvillage": 4460,
      "ĠQu": 4461,
      "Ġtrig": 4462,
      "Ġoil": 4463,
      "Ġbring": 4464,
      "Ġtransfer": 4465,
      "Ġoxygen": 4466,
      "ĠAfrica": 4467,
      "Ġwrt": 4468,
      "histic": 4469,
      ",\\": 4470,
      "Ġcred": 4471,
      "Ġdeal": 4472,
      "Regarding": 4473,
      "rote": 4474,
      "Ġstraight": 4475,
      "Ġhappened": 4476,
      "oph": 4477,
      "ÑĢ": 4478,
      "ows": 4479,
      "apy": 4480,
      "Ġfigures": 4481,
      "Ġdaughter": 4482,
      "ĠGreek": 4483,
      "ologies": 4484,
      "ude": 4485,
      "riage": 4486,
      "titud": 4487,
      "Ġhundred": 4488,
      "riend": 4489,
      "Ġcarbon": 4490,
      "Ġrain": 4491,
      "Ġamb": 4492,
      "Ġshown": 4493,
      "Ġsophistic": 4494,
      "Ġsituations": 4495,
      "ighting": 4496,
      "ĠItalian": 4497,
      "ĠEast": 4498,
      "bda": 4499,
      "top": 4500,
      "ĠSy": 4501,
      "Ġlandscape": 4502,
      "Ġtiss": 4503,
      "uate": 4504,
      "Ġworkers": 4505,
      "Ø§ÛĮ": 4506,
      "mes": 4507,
      "Ġrational": 4508,
      "Ġshif": 4509,
      "à°¿": 4510,
      ")$,": 4511,
      "Ġcycle": 4512,
      "Ġfraction": 4513,
      "Ġargument": 4514,
      "amples": 4515,
      "Ġscale": 4516,
      "Ġdied": 4517,
      "ĠAM": 4518,
      "sts": 4519,
      "':": 4520,
      "Ġcustomer": 4521,
      "Ġdivisor": 4522,
      "allel": 4523,
      "Ġjoi": 4524,
      "iff": 4525,
      "care": 4526,
      "Ġhypothesis": 4527,
      "Ġcontribute": 4528,
      "Ġrecent": 4529,
      "Ġ&=": 4530,
      "Ġcharacterized": 4531,
      "Ġadvantage": 4532,
      "Ġship": 4533,
      "ĠPort": 4534,
      "ĠĠĠĠĠ": 4535,
      "Ġvalu": 4536,
      "unt": 4537,
      "ĠComp": 4538,
      "ÙĤ": 4539,
      "Ġelimin": 4540,
      "Ġbed": 4541,
      "yal": 4542,
      "ient": 4543,
      ".</": 4544,
      "bes": 4545,
      "Ġrepe": 4546,
      "ĠCong": 4547,
      "igration": 4548,
      "Ġletter": 4549,
      "Ġcomponents": 4550,
      "Ġquadratic": 4551,
      "Ġcontributed": 4552,
      "Ġolder": 4553,
      "Ġsea": 4554,
      "ĠConsider": 4555,
      "à°¾": 4556,
      "ĠPer": 4557,
      "Ġeverything": 4558,
      "Ġbegins": 4559,
      "ĠØª": 4560,
      "ĠHouse": 4561,
      "Ø³Øª": 4562,
      "Ġreality": 4563,
      "ĠDNA": 4564,
      "ounding": 4565,
      "Ġhands": 4566,
      "uk": 4567,
      "ĠDem": 4568,
      "floor": 4569,
      "Ġworked": 4570,
      "ĠJew": 4571,
      "Ġperspective": 4572,
      "RO": 4573,
      ">.": 4574,
      "Ġnuclear": 4575,
      "ifest": 4576,
      "bit": 4577,
      "usive": 4578,
      "ĠRussian": 4579,
      "rrb": 4580,
      "gitim": 4581,
      "Ġhit": 4582,
      "lrb": 4583,
      "ĠCho": 4584,
      "Ġdom": 4585,
      "Ġcurrently": 4586,
      "Ġcolonial": 4587,
      "ĠTim": 4588,
      "Ġpreced": 4589,
      "Ġvector": 4590,
      "Ġphone": 4591,
      "à»": 4592,
      "Ġcold": 4593,
      "*sqrt": 4594,
      "sec": 4595,
      "Ġwood": 4596,
      "bles": 4597,
      "ography": 4598,
      "rect": 4599,
      "ĠÎ": 4600,
      "Ġcoast": 4601,
      "Ġcourse": 4602,
      "Ġacademic": 4603,
      "Ġmeeting": 4604,
      "Ġdone": 4605,
      "can": 4606,
      "<source": 4607,
      "Ġconstraints": 4608,
      "ĠMin": 4609,
      "va": 4610,
      "odies": 4611,
      "Ġutil": 4612,
      "Ġcheck": 4613,
      "ords": 4614,
      "trict": 4615,
      "ĠGermany": 4616,
      "ĠSoviet": 4617,
      "binom": 4618,
      "tri": 4619,
      "Ġdimens": 4620,
      "key": 4621,
      "Ġtelevision": 4622,
      "Ġ(\\": 4623,
      "Ġvoice": 4624,
      "Ġalign": 4625,
      "à¸²": 4626,
      "Ġmys": 4627,
      "utral": 4628,
      "ĠCould": 4629,
      "âĺħ": 4630,
      "Ġdrive": 4631,
      "à«ĩ": 4632,
      "Ġmorning": 4633,
      "Ġcolumn": 4634,
      "Ġimmediate": 4635,
      "Ġmental": 4636,
      "Ġweeks": 4637,
      "Ġimpossible": 4638,
      "Ġdie": 4639,
      "Ġinterests": 4640,
      "Ġpowerful": 4641,
      "Ġapply": 4642,
      "Ġremained": 4643,
      "ES": 4644,
      "Ġkil": 4645,
      "uration": 4646,
      "tas": 4647,
      "Ġdomes": 4648,
      "Substitu": 4649,
      "Ġstage": 4650,
      "Ġcomb": 4651,
      "back": 4652,
      "Ġhumans": 4653,
      "Ġwarm": 4654,
      "amer": 4655,
      "ilit": 4656,
      "ured": 4657,
      "gence": 4658,
      "Ġriver": 4659,
      "As": 4660,
      "Ġotherwise": 4661,
      "Ġbeginning": 4662,
      "âĤ": 4663,
      "âĢĻt": 4664,
      "Ġentity": 4665,
      "ugust": 4666,
      "-S": 4667,
      "Ġelectric": 4668,
      "Ġdegree": 4669,
      "Ġflex": 4670,
      "ĠMon": 4671,
      "Ġwave": 4672,
      "cles": 4673,
      "Ġgovernance": 4674,
      "Ġartist": 4675,
      "Ġtrend": 4676,
      "Ġexternal": 4677,
      "Ġhowever": 4678,
      "Ġbacter": 4679,
      ">ĊĊ": 4680,
      "Ġobtain": 4681,
      "ĠGreat": 4682,
      "lambda": 4683,
      "Ġvul": 4684,
      "Ġscre": 4685,
      "Ġrob": 4686,
      "Ġathle": 4687,
      "men": 4688,
      "à¨¾": 4689,
      "ĠSam": 4690,
      "\\boxed": 4691,
      "turing": 4692,
      "Ġcm": 4693,
      "ĠUnion": 4694,
      "Ġsoon": 4695,
      "Ġuncle": 4696,
      "icit": 4697,
      "(s": 4698,
      "ief": 4699,
      "Ġspeech": 4700,
      "ectives": 4701,
      "Ġaren": 4702,
      "Ġà²": 4703,
      "Ġmob": 4704,
      "iting": 4705,
      "ino": 4706,
      "Ġfront": 4707,
      "Ġconsistent": 4708,
      "Ġapparent": 4709,
      "ico": 4710,
      "Ġfamilies": 4711,
      "IN": 4712,
      "AB": 4713,
      "Ġclassification": 4714,
      "Ġnumerous": 4715,
      "Ġrot": 4716,
      "Ġmotiv": 4717,
      "Ġorganizations": 4718,
      "ĠBuddhis": 4719,
      "Ġcampaign": 4720,
      "ho": 4721,
      "_i": 4722,
      "Ġsynth": 4723,
      "Ġnews": 4724,
      "Ġrei": 4725,
      "band": 4726,
      "Ġattention": 4727,
      "Ġbrought": 4728,
      "Ġskin": 4729,
      "Ġsumm": 4730,
      "Ġrepresentation": 4731,
      "bre": 4732,
      "$.Ċ": 4733,
      "Ġidentify": 4734,
      "Ġexhib": 4735,
      "Ġgender": 4736,
      "Ġvisual": 4737,
      "cap": 4738,
      "Ġfat": 4739,
      "ĠExp": 4740,
      "igen": 4741,
      "nn": 4742,
      "Ġidentified": 4743,
      "Ġkids": 4744,
      "Ġcompetition": 4745,
      "ĠNot": 4746,
      "joy": 4747,
      "Ġdivisible": 4748,
      "Ġinteresting": 4749,
      "Ġhom": 4750,
      "Ġschools": 4751,
      "plies": 4752,
      "Ġtension": 4753,
      "Ġfeature": 4754,
      "oral": 4755,
      "Ġplays": 4756,
      "Ġdecades": 4757,
      "Ġlinguistic": 4758,
      "Ġfelt": 4759,
      "Ġeconomy": 4760,
      "Ġdisrup": 4761,
      "Ġheard": 4762,
      "irds": 4763,
      "Ġearth": 4764,
      "ĠTe": 4765,
      "Ġfinds": 4766,
      "Ġlegitim": 4767,
      "Ġera": 4768,
      "Ġask": 4769,
      "Ġoperational": 4770,
      "implies": 4771,
      "Ġoperation": 4772,
      "ĠCom": 4773,
      "netic": 4774,
      "cto": 4775,
      "Ġabsor": 4776,
      "Ġgold": 4777,
      "UR": 4778,
      "Ġcele": 4779,
      "tail": 4780,
      "iers": 4781,
      "Ġreceive": 4782,
      "Ġasking": 4783,
      "Ġsets": 4784,
      "'.": 4785,
      "(b": 4786,
      "Ġrespectively": 4787,
      "hes": 4788,
      "Ġleads": 4789,
      "Ġshop": 4790,
      "cin": 4791,
      "Ġgeometric": 4792,
      "/(": 4793,
      "Ġreasons": 4794,
      "Ġacqu": 4795,
      "Ġoffers": 4796,
      "Ġfemale": 4797,
      "Ġcitiz": 4798,
      "weet": 4799,
      "Ġaccurate": 4800,
      "ĠCath": 4801,
      "{d": 4802,
      "Ġbiggest": 4803,
      "Ġtra": 4804,
      "yp": 4805,
      "-to": 4806,
      "Ġimage": 4807,
      "Ġdanger": 4808,
      "Ġconsequences": 4809,
      "Ġatom": 4810,
      "Ð¾Ð": 4811,
      "(g": 4812,
      "à¥ĭ": 4813,
      "Ġran": 4814,
      "Ġobserved": 4815,
      "ago": 4816,
      "ĠOption": 4817,
      "Ġsubstitu": 4818,
      "ĠBrit": 4819,
      "Ġnutr": 4820,
      "Ġbiological": 4821,
      "Ġagricultural": 4822,
      "Ġeyes": 4823,
      "Ġtrack": 4824,
      "tember": 4825,
      "Ġgiving": 4826,
      "tac": 4827,
      "irect": 4828,
      "Ġdecimal": 4829,
      "aled": 4830,
      "Ġhealthcare": 4831,
      "ĠEmily": 4832,
      "Ġtools": 4833,
      "-A": 4834,
      "Ġcourts": 4835,
      "Ġtesting": 4836,
      "Ġdark": 4837,
      "Ġdomestic": 4838,
      "vin": 4839,
      "Ġimportance": 4840,
      "airs": 4841,
      "Ġremember": 4842,
      "Ġremark": 4843,
      "aily": 4844,
      "Ġplayer": 4845,
      "ĠWilli": 4846,
      "Ġstation": 4847,
      "Ġrestaur": 4848,
      "^{\\": 4849,
      "ĠHead": 4850,
      "oud": 4851,
      "Ġequival": 4852,
      "Ġsophisticated": 4853,
      "à¤¨": 4854,
      "Ġextended": 4855,
      "Ġrou": 4856,
      "tee": 4857,
      "Ġisol": 4858,
      "ali": 4859,
      "point": 4860,
      "Ġvulner": 4861,
      "Ġdisapp": 4862,
      "Ġcontact": 4863,
      "Ġpurpose": 4864,
      "Ġclassical": 4865,
      "ady": 4866,
      "Expand": 4867,
      "Ġmaintained": 4868,
      "Ġgun": 4869,
      "Ġcloth": 4870,
      "à´¿à´": 4871,
      "Ġrect": 4872,
      "ln": 4873,
      "lymp": 4874,
      "Ġdetermined": 4875,
      "tree": 4876,
      "Ġchanged": 4877,
      "Ġvaluable": 4878,
      "Ġcoming": 4879,
      "Ġdipl": 4880,
      "First": 4881,
      "Ġrecords": 4882,
      "Ġincome": 4883,
      "Ġreb": 4884,
      "ĠFe": 4885,
      "dis": 4886,
      "ctors": 4887,
      "Ġaffects": 4888,
      "AR": 4889,
      "Ġtas": 4890,
      "Ġclar": 4891,
      "Ġtherm": 4892,
      "Ġfunctional": 4893,
      "Ġpresid": 4894,
      "Ġadvance": 4895,
      "Ġnearly": 4896,
      "llig": 4897,
      "Ġbag": 4898,
      "Ġfa": 4899,
      "Ġcenturies": 4900,
      "Ġhous": 4901,
      "Ġnotable": 4902,
      "urally": 4903,
      "Ġaccep": 4904,
      "Ġleaving": 4905,
      "ĠÙĨ": 4906,
      "ĠĠĊĊ": 4907,
      "Ġprocedures": 4908,
      "Ġalongside": 4909,
      "Ġfit": 4910,
      "Ġdu": 4911,
      "cil": 4912,
      "Ġinterpretation": 4913,
      "acters": 4914,
      "ĠWas": 4915,
      "cell": 4916,
      "Ġskills": 4917,
      "oup": 4918,
      "Ġattempt": 4919,
      "Ġeveryone": 4920,
      "question": 4921,
      "Ġmanufac": 4922,
      "Ġtrial": 4923,
      "Ġsecret": 4924,
      "One": 4925,
      "etary": 4926,
      "Ġsignificance": 4927,
      "Ġparallel": 4928,
      "ĠTitle": 4929,
      "Ġelev": 4930,
      "estro": 4931,
      "Ġpresents": 4932,
      "-ch": 4933,
      "Ġrig": 4934,
      "Ġincreasingly": 4935,
      "Ġclaim": 4936,
      "Teacher": 4937,
      "Ġtrib": 4938,
      "Ġresponses": 4939,
      "Ġrevolution": 4940,
      "Ġpron": 4941,
      "Ġanything": 4942,
      "oly": 4943,
      "Ġsister": 4944,
      "ctober": 4945,
      "amin": 4946,
      "Ġattrib": 4947,
      "Ġconnected": 4948,
      "Ġbackground": 4949,
      "à°¾à°": 4950,
      "Ġspent": 4951,
      "Ġproceed": 4952,
      "Ġfootball": 4953,
      "Ġbul": 4954,
      "ĠSep": 4955,
      "ĠRiver": 4956,
      "Ġfourt": 4957,
      "Ġfourth": 4958,
      "Ġtouches": 4959,
      "(z": 4960,
      "auti": 4961,
      "ĠAsia": 4962,
      "Ġclosest": 4963,
      "erial": 4964,
      "Ġai": 4965,
      "Ġpossess": 4966,
      "}=": 4967,
      "à¸²à¸": 4968,
      "arden": 4969,
      "Ġongoing": 4970,
      "Ġrequiring": 4971,
      "astern": 4972,
      "Ġhydro": 4973,
      "Ġchanging": 4974,
      "ifies": 4975,
      "Ġtiming": 4976,
      "Ġexplicit": 4977,
      ");": 4978,
      "-t": 4979,
      "mise": 4980,
      "Ġexposure": 4981,
      ")*(-": 4982,
      "Ġbond": 4983,
      "Ġindicates": 4984,
      "ĠPhil": 4985,
      "Ġsupply": 4986,
      "Ġkid": 4987,
      "vey": 4988,
      "Ġradio": 4989,
      "OL": 4990,
      "Ġfair": 4991,
      "Ġhelped": 4992,
      "}$.ĊĊ": 4993,
      "Ġrein": 4994,
      "Ġsite": 4995,
      "ĠFirst": 4996,
      "Ġliterature": 4997,
      "Ġboundaries": 4998,
      "ulate": 4999,
      "odes": 5000,
      "ĠDo": 5001,
      "Ġfast": 5002,
      "Ġstatistical": 5003,
      "Ġmurder": 5004,
      "erb": 5005,
      "Ġdrop": 5006,
      "ĠAc": 5007,
      "Ġleader": 5008,
      "set": 5009,
      "(k": 5010,
      "lit": 5011,
      "Ġcelebr": 5012,
      "Ġmarriage": 5013,
      "Ġrad": 5014,
      "Ġmajority": 5015,
      "ĠRec": 5016,
      "Ġinfi": 5017,
      "Ġdirector": 5018,
      "ieties": 5019,
      "ĠHol": 5020,
      "Ġbri": 5021,
      "Ġlinear": 5022,
      "Ġcomput": 5023,
      "sc": 5024,
      "atric": 5025,
      ")--(": 5026,
      "ĠIslamic": 5027,
      "Ġmarked": 5028,
      "ĠScot": 5029,
      "Ġresearc": 5030,
      "Ġbit": 5031,
      "Ġ#": 5032,
      "Ġrunning": 5033,
      "rightarrow": 5034,
      "ibly": 5035,
      "Ġnetworks": 5036,
      "Ġdoctor": 5037,
      "Ġadded": 5038,
      "Ġdiplom": 5039,
      "Ġnaturally": 5040,
      "Ġcool": 5041,
      "Ġconversation": 5042,
      "Ġassuming": 5043,
      "Ġscholars": 5044,
      "\\).ĊĊ": 5045,
      "Ġachieved": 5046,
      "ÙĨØ¯": 5047,
      "ĨĴ": 5048,
      "Ġconfused": 5049,
      "Ġreven": 5050,
      "Ġinfin": 5051,
      "Ġchurch": 5052,
      "Ġforced": 5053,
      "elling": 5054,
      "Ġhot": 5055,
      "Ġcharacters": 5056,
      "gorith": 5057,
      "Ġtree": 5058,
      "tine": 5059,
      "Ġhus": 5060,
      "oul": 5061,
      "Ġliber": 5062,
      "Ġproj": 5063,
      "icial": 5064,
      "Ġprotei": 5065,
      "lling": 5066,
      "Ã¼": 5067,
      "Ġinfluences": 5068,
      "ĠTrans": 5069,
      "Ġborder": 5070,
      "Ġweap": 5071,
      "Ġindependence": 5072,
      "Ġpeace": 5073,
      "Ġmeasurement": 5074,
      "Ġhar": 5075,
      "Ġprotein": 5076,
      "Ġegg": 5077,
      "uge": 5078,
      "Ġintersection": 5079,
      "Ġnation": 5080,
      "Ġaffected": 5081,
      "ĠSm": 5082,
      "Ġdistinguish": 5083,
      "east": 5084,
      "Ġinsp": 5085,
      "ĠCor": 5086,
      "-making": 5087,
      "ĠMex": 5088,
      "ĠPaul": 5089,
      "Ġodd": 5090,
      "Ġtowards": 5091,
      "Ġexchange": 5092,
      "ĠÅ¿": 5093,
      "Ġhospital": 5094,
      "Ġsuccessfully": 5095,
      "Ġdecided": 5096,
      "Ġwrote": 5097,
      "Ġweather": 5098,
      "Ġrespect": 5099,
      "Ġdescribe": 5100,
      "Ġvideo": 5101,
      "forms": 5102,
      "Ġsn": 5103,
      "ulf": 5104,
      "Ġarrangements": 5105,
      "Ġcontinues": 5106,
      "ĠIts": 5107,
      "Ġsurvival": 5108,
      "ulated": 5109,
      "Ġconnections": 5110,
      "Ġholds": 5111,
      "umber": 5112,
      "Ġcoordinates": 5113,
      "Ġconfusion": 5114,
      "Ġmetal": 5115,
      "-in": 5116,
      "Ġeight": 5117,
      "Ġkn": 5118,
      "ĠEmpire": 5119,
      "ĠUK": 5120,
      "ficial": 5121,
      "orms": 5122,
      "Ġtalk": 5123,
      "à¦¿à¦": 5124,
      "unction": 5125,
      "Ġpiece": 5126,
      "iforn": 5127,
      "Ġstarting": 5128,
      "Ġcomprom": 5129,
      "orders": 5130,
      "Ġreplaced": 5131,
      "Ġcollection": 5132,
      "Ġtwice": 5133,
      "}^": 5134,
      "aught": 5135,
      "Ġdens": 5136,
      "emb": 5137,
      "Ġrelease": 5138,
      "ateral": 5139,
      "iber": 5140,
      "Ġparties": 5141,
      "ĠDavid": 5142,
      "Ġdual": 5143,
      "Ġenjoy": 5144,
      "Ġdecline": 5145,
      "Ġlin": 5146,
      "ĠØ±": 5147,
      "Ġbreath": 5148,
      "Ġmel": 5149,
      "Ġextra": 5150,
      "Ġ?": 5151,
      "Ġpathways": 5152,
      "Ġfamous": 5153,
      "dfrac": 5154,
      "Ġcup": 5155,
      "amb": 5156,
      "Ġ``": 5157,
      "eline": 5158,
      "Ġshowing": 5159,
      "crimin": 5160,
      "Ġsoil": 5161,
      "ees": 5162,
      "olving": 5163,
      "Ġ''": 5164,
      "Ġdivision": 5165,
      "ĠHind": 5166,
      "Ġfrequency": 5167,
      "ĠâĢĵ": 5168,
      "Ġsupposed": 5169,
      ",y": 5170,
      "ogue": 5171,
      "mon": 5172,
      "$Ċ": 5173,
      "Ġnote": 5174,
      "×Ķ": 5175,
      "Ġmere": 5176,
      "Ġreasoning": 5177,
      "Ġreaction": 5178,
      "ij": 5179,
      "ĠBen": 5180,
      "place": 5181,
      "Âł": 5182,
      "ystem": 5183,
      "Ġseven": 5184,
      "ĠFrom": 5185,
      "Ġplat": 5186,
      "Ġalgorith": 5187,
      "ĠMarch": 5188,
      "Ġregardless": 5189,
      "edom": 5190,
      "Ġfixed": 5191,
      "II": 5192,
      "ieval": 5193,
      "Ġstable": 5194,
      "Ġcorpor": 5195,
      "asts": 5196,
      "-C": 5197,
      "ĠChurch": 5198,
      "Ġreferring": 5199,
      "Ġhyper": 5200,
      "Ġsatisfy": 5201,
      "ĠPr": 5202,
      "Ġpoll": 5203,
      "Ġfailure": 5204,
      "Ġconv": 5205,
      "Ġtor": 5206,
      "An": 5207,
      "itor": 5208,
      "Ġcomparison": 5209,
      ")**": 5210,
      "Ġgoals": 5211,
      "Ġfear": 5212,
      "Ġprison": 5213,
      "tit": 5214,
      "Ġopportunities": 5215,
      "Ġlegisl": 5216,
      "Ġminor": 5217,
      "ellow": 5218,
      ":O": 5219,
      "llect": 5220,
      "Ġopposite": 5221,
      "ĠÙĩ": 5222,
      "ager": 5223,
      "ĠSea": 5224,
      "Ġclearly": 5225,
      "Ġexists": 5226,
      "Ġassessment": 5227,
      "Ġcomposite": 5228,
      "ĠEgy": 5229,
      "Ġmot": 5230,
      "Ġsat": 5231,
      "ifornia": 5232,
      "Ġdestro": 5233,
      "iors": 5234,
      "Ġnu": 5235,
      "Ġrelig": 5236,
      "Ġbehavioral": 5237,
      "^n": 5238,
      "raft": 5239,
      "Ġenforce": 5240,
      "Ġsports": 5241,
      "ocal": 5242,
      "unic": 5243,
      "Ġlargely": 5244,
      "ĠHar": 5245,
      "Ġvariations": 5246,
      "ĠPers": 5247,
      "Ġselect": 5248,
      "\":": 5249,
      "Ġcontinuous": 5250,
      "po": 5251,
      "tang": 5252,
      "Ġvertices": 5253,
      "Ġsquares": 5254,
      "Ġdollars": 5255,
      "appro": 5256,
      "anging": 5257,
      "Ġpublished": 5258,
      "Ġequip": 5259,
      "Ġdefinitively": 5260,
      "Ġperman": 5261,
      "conn": 5262,
      "cing": 5263,
      "Ġrelevant": 5264,
      "Ġmetab": 5265,
      "com": 5266,
      "mentary": 5267,
      "Ġonline": 5268,
      "}+": 5269,
      "ounced": 5270,
      "Ġdetermining": 5271,
      "Ġdoor": 5272,
      "Ġpal": 5273,
      "Ġselection": 5274,
      "Ġliterary": 5275,
      "à¯ģà®": 5276,
      "ĠMany": 5277,
      "tos": 5278,
      "ĠMor": 5279,
      "Ġprogress": 5280,
      "ĠAccording": 5281,
      "Ġheavy": 5282,
      "Ġvehic": 5283,
      "Ġpresented": 5284,
      "Ġsac": 5285,
      "Ġfacts": 5286,
      "Ġdecl": 5287,
      "ãģŁ": 5288,
      "formation": 5289,
      "Ġprobably": 5290,
      "Ġhair": 5291,
      "Ġdecide": 5292,
      "Ġhandle": 5293,
      "acing": 5294,
      "Ġiron": 5295,
      "Ġec": 5296,
      "Ġitems": 5297,
      "Ġmachine": 5298,
      "hab": 5299,
      "ctive": 5300,
      "ĠAugust": 5301,
      "Ġinstitution": 5302,
      "Ġalco": 5303,
      "grees": 5304,
      "(\"": 5305,
      "Ġorganizational": 5306,
      "Ġtang": 5307,
      "Ġideas": 5308,
      "Ġreproduc": 5309,
      "Ġsuperior": 5310,
      "Ġfaced": 5311,
      "aint": 5312,
      "Ġdisp": 5313,
      "Ġefficient": 5314,
      "Ġpurs": 5315,
      "late": 5316,
      "pril": 5317,
      "Ġprotoc": 5318,
      "Ar": 5319,
      "}+\\": 5320,
      "uild": 5321,
      "Ġdegrees": 5322,
      "Ġintroduced": 5323,
      "Ġadministration": 5324,
      "Ġpreviously": 5325,
      "yr": 5326,
      "Ġpairs": 5327,
      "ĠĠĠĠĠĠĠ": 5328,
      "ĠPM": 5329,
      "rete": 5330,
      "à¤¤": 5331,
      "Ġbank": 5332,
      "Ġ\\):Ċ": 5333,
      "}\\).": 5334,
      "anges": 5335,
      "uine": 5336,
      "(m": 5337,
      "Ã¶": 5338,
      "Ġhappy": 5339,
      "ĠBoth": 5340,
      "OR": 5341,
      "á»": 5342,
      "Ġversion": 5343,
      "Ġpromin": 5344,
      "aming": 5345,
      "ĠFrank": 5346,
      "Ġcollege": 5347,
      "Ġintellect": 5348,
      "Comp": 5349,
      "Ġbarri": 5350,
      "Ġqual": 5351,
      "Ġprotect": 5352,
      "Ġpressures": 5353,
      "Ġexpressed": 5354,
      "Ġviolence": 5355,
      "ãģ§": 5356,
      "From": 5357,
      "zing": 5358,
      "oration": 5359,
      "ĠBlack": 5360,
      "oles": 5361,
      "ĠCongress": 5362,
      "ĠPre": 5363,
      "Ġreflected": 5364,
      ")^{": 5365,
      "à«į": 5366,
      "Ġuniversity": 5367,
      "down": 5368,
      "à«įàª": 5369,
      "Ġrelation": 5370,
      "Ġrounded": 5371,
      "Ġencour": 5372,
      "Ġtex": 5373,
      "ĠJames": 5374,
      "Ġpan": 5375,
      "ibr": 5376,
      "ancing": 5377,
      "Ġcomposition": 5378,
      "Ġresponsible": 5379,
      "ĠBer": 5380,
      "Ġblock": 5381,
      "Ġhusband": 5382,
      "Ġindicating": 5383,
      "Ġexercise": 5384,
      "ĠJune": 5385,
      "ander": 5386,
      "tering": 5387,
      "Ġattr": 5388,
      "aran": 5389,
      "uan": 5390,
      "Ġaccuracy": 5391,
      "Ġprep": 5392,
      "idt": 5393,
      "sep": 5394,
      "Ġmale": 5395,
      "Ġgenerated": 5396,
      "Ġsenti": 5397,
      "Ġdaily": 5398,
      "Ġpredicting": 5399,
      "Ġimmediately": 5400,
      "Ġnothing": 5401,
      "Ġdemonstrate": 5402,
      "ĠVal": 5403,
      "Sh": 5404,
      "Ġaddition": 5405,
      "))/(": 5406,
      "ĠPortug": 5407,
      "ao": 5408,
      "ecause": 5409,
      "Ġtruth": 5410,
      "(i": 5411,
      "za": 5412,
      "vity": 5413,
      "à³į": 5414,
      "utic": 5415,
      "Ġgrav": 5416,
      "(c": 5417,
      "Ġplayers": 5418,
      "Ġphilosophy": 5419,
      "ĠAir": 5420,
      "Ġperp": 5421,
      "ĠSan": 5422,
      "Ġserving": 5423,
      "Ġenzy": 5424,
      "ÛĮÙĨ": 5425,
      ",$": 5426,
      "asy": 5427,
      "-old": 5428,
      "ines": 5429,
      "Ġeast": 5430,
      "nder": 5431,
      "Ġrich": 5432,
      "which": 5433,
      "Ġgenuine": 5434,
      "Ġtac": 5435,
      ".The": 5436,
      ".âĢĿ": 5437,
      "Ġtrip": 5438,
      "Whether": 5439,
      "den": 5440,
      "Ġcausing": 5441,
      "known": 5442,
      "osen": 5443,
      "ĠTwo": 5444,
      "Ġ\\).Ċ": 5445,
      "ĠJanuary": 5446,
      "Ġcriter": 5447,
      "Ġstems": 5448,
      "itely": 5449,
      "err": 5450,
      "pon": 5451,
      "ĠMary": 5452,
      "Ġdemographic": 5453,
      "ĠMal": 5454,
      "AL": 5455,
      "Ġinvestment": 5456,
      "Ġcustom": 5457,
      "ena": 5458,
      "Ġexcl": 5459,
      "Ġbaby": 5460,
      "Ġfields": 5461,
      "ĠBritain": 5462,
      "apping": 5463,
      "Ġexamination": 5464,
      ".e": 5465,
      "Ġsettle": 5466,
      "Ġassign": 5467,
      "atom": 5468,
      "Based": 5469,
      "----Ċ": 5470,
      "_T": 5471,
      "Col": 5472,
      "ĠRussia": 5473,
      "Ġrefers": 5474,
      "oking": 5475,
      ".\"ĊĊ": 5476,
      "ĠAustralia": 5477,
      "ãģ«": 5478,
      "Ġplaced": 5479,
      "Ġscientists": 5480,
      "Ġbelieved": 5481,
      "ĠEven": 5482,
      "onder": 5483,
      "estiv": 5484,
      "hal": 5485,
      "àµģ": 5486,
      "Ġcharge": 5487,
      "thus": 5488,
      "Ġcitizens": 5489,
      "nel": 5490,
      "Ġpicking": 5491,
      "ille": 5492,
      "tood": 5493,
      "Ġsouthern": 5494,
      "ĠCoun": 5495,
      "iday": 5496,
      "ĠLatin": 5497,
      "Ġneuro": 5498,
      ",-": 5499,
      "iform": 5500,
      "Ġtherapy": 5501,
      "Ġsafe": 5502,
      "(p": 5503,
      "ica": 5504,
      "beta": 5505,
      "AT": 5506,
      "Ġballs": 5507,
      "Ġglass": 5508,
      "ogen": 5509,
      "ocks": 5510,
      "apeutic": 5511,
      "och": 5512,
      "uting": 5513,
      "Ġsupported": 5514,
      "ĠCanada": 5515,
      "Ġgirls": 5516,
      "ĠØ³": 5517,
      "Ġasks": 5518,
      "ĠApril": 5519,
      "ĠMost": 5520,
      "Ġhost": 5521,
      "Ġtrees": 5522,
      "Ġcommonly": 5523,
      "Ġintellig": 5524,
      "Ġprices": 5525,
      "Ġrail": 5526,
      "à±ģ": 5527,
      "Ġpul": 5528,
      "ĠOther": 5529,
      "Ġnorthern": 5530,
      "Ġsolid": 5531,
      "igit": 5532,
      "vert": 5533,
      "Ġpregn": 5534,
      "(A": 5535,
      "Ġrisks": 5536,
      "Ġagre": 5537,
      "Ġadult": 5538,
      "ĠSeptember": 5539,
      "ressed": 5540,
      "Ġtool": 5541,
      "Ġerror": 5542,
      "Ġwest": 5543,
      "ĠSen": 5544,
      "anged": 5545,
      "Ġoptimal": 5546,
      "Ġemerged": 5547,
      "mod": 5548,
      "Ġresearchers": 5549,
      "Ġfinally": 5550,
      "xi": 5551,
      "ensus": 5552,
      "Ġstars": 5553,
      "Ġconsumption": 5554,
      "Ġspaces": 5555,
      "Ġthousands": 5556,
      "Ġinten": 5557,
      "Ġcrime": 5558,
      "Ġphase": 5559,
      "Ġextremely": 5560,
      "Ġocean": 5561,
      "andon": 5562,
      "Ġgeographic": 5563,
      "hington": 5564,
      "oses": 5565,
      "ĠBur": 5566,
      "Ġmolecular": 5567,
      "Ġfight": 5568,
      "Ġdiscrimin": 5569,
      "à¤ķ": 5570,
      "Add": 5571,
      "Ġmeaningful": 5572,
      "Ġdebate": 5573,
      "CD": 5574,
      "Ġdiversity": 5575,
      "Ġcompetitive": 5576,
      "Ġtermin": 5577,
      "Ġfilms": 5578,
      ".\"Ċ": 5579,
      "Part": 5580,
      "Ġterritories": 5581,
      "Here": 5582,
      "ĠJack": 5583,
      "âĢĳ": 5584,
      "nations": 5585,
      "ĠØ¯Ø±": 5586,
      "name": 5587,
      "ican": 5588,
      "otal": 5589,
      "edi": 5590,
      "Ġstarts": 5591,
      "His": 5592,
      "etr": 5593,
      "nit": 5594,
      "Ġexplains": 5595,
      "Ġreference": 5596,
      "Ġcoff": 5597,
      "ham": 5598,
      "Ġthus": 5599,
      "Ġmotion": 5600,
      "Expl": 5601,
      "Ġclasses": 5602,
      "ĠGeorge": 5603,
      "Ġchron": 5604,
      "eal": 5605,
      "Ġsaying": 5606,
      "asion": 5607,
      "bruary": 5608,
      "Ġmission": 5609,
      "ĠParty": 5610,
      "Ġpropor": 5611,
      "Ġhier": 5612,
      "orter": 5613,
      "tub": 5614,
      "Ġethn": 5615,
      "ĠJuly": 5616,
      "Ġow": 5617,
      "ults": 5618,
      "overline": 5619,
      "Ġcontaining": 5620,
      "Â°": 5621,
      "ãĢģ": 5622,
      "Ġtranslated": 5623,
      "wood": 5624,
      "ete": 5625,
      "Ġagent": 5626,
      "-g": 5627,
      "autiful": 5628,
      "Ġfrag": 5629,
      "agi": 5630,
      "Ġextent": 5631,
      "Ġsufficient": 5632,
      "Ġstrict": 5633,
      "Ġreturned": 5634,
      "mic": 5635,
      "Ġcouldn": 5636,
      "Ġfocused": 5637,
      "ĠCalifornia": 5638,
      "itan": 5639,
      "Ġdivine": 5640,
      "Ġadvanced": 5641,
      "Ġplans": 5642,
      "Ġmuscle": 5643,
      "Ġtherapeutic": 5644,
      "Ġsymbol": 5645,
      "Ġtests": 5646,
      "Ġdevelopments": 5647,
      "Ġprepar": 5648,
      "Ġseparated": 5649,
      "ĠOctober": 5650,
      "àŃį": 5651,
      "Ġtypical": 5652,
      "Ġmixed": 5653,
      "oper": 5654,
      "Ø¬": 5655,
      "Ġattacks": 5656,
      "Ġarm": 5657,
      "Ġradiation": 5658,
      "gency": 5659,
      "Ġrepresenting": 5660,
      "Ġhop": 5661,
      "Ġgather": 5662,
      "Ġaware": 5663,
      "friend": 5664,
      "Ġelect": 5665,
      "{v": 5666,
      "Ġtriang": 5667,
      "base": 5668,
      "AN": 5669,
      "idth": 5670,
      "Ġattempts": 5671,
      "ĠBro": 5672,
      "Ġdriving": 5673,
      "Ġdealing": 5674,
      "Ġpieces": 5675,
      "Ġangles": 5676,
      "iding": 5677,
      "Ġdouble": 5678,
      "(r": 5679,
      "Ġturned": 5680,
      "ĠCr": 5681,
      "Ġgoods": 5682,
      "Ġleaders": 5683,
      "Ġfacilit": 5684,
      "uli": 5685,
      "iles": 5686,
      "Ġdiff": 5687,
      "ype": 5688,
      "Ġdemonstrating": 5689,
      "New": 5690,
      "Ġdensity": 5691,
      "Ġintellectual": 5692,
      "Ġliqu": 5693,
      "Ġcandid": 5694,
      "ĠPark": 5695,
      "la": 5696,
      "Ġextend": 5697,
      "ĠAdditionally": 5698,
      "Ġmechanical": 5699,
      "mar": 5700,
      "Ġtransmission": 5701,
      "Ġstories": 5702,
      "Ġlowest": 5703,
      "Ġdriven": 5704,
      "RI": 5705,
      "icients": 5706,
      "Ġmarried": 5707,
      "Ġstim": 5708,
      "Ġillustr": 5709,
      "Ġpromo": 5710,
      "Ġà¤¸": 5711,
      "yes": 5712,
      "label": 5713,
      "Ġfreedom": 5714,
      "Ġholding": 5715,
      "Ġcards": 5716,
      "Ġtem": 5717,
      "à°Ĥ": 5718,
      "ĠCount": 5719,
      "Ġperce": 5720,
      "ya": 5721,
      "cending": 5722,
      "Ġbasis": 5723,
      "ĠTV": 5724,
      "ãģ¯": 5725,
      "Ġunclear": 5726,
      "ĠSchool": 5727,
      "Ġnarrative": 5728,
      "Ġfailed": 5729,
      "Ġlogical": 5730,
      "Ġbillion": 5731,
      "Ġheavily": 5732,
      "Ġcontract": 5733,
      "Ġchann": 5734,
      "Ġrej": 5735,
      "ĠWhy": 5736,
      "Ġarrangement": 5737,
      "Ġspend": 5738,
      "istan": 5739,
      "with": 5740,
      "Ġwild": 5741,
      "Ġconsideration": 5742,
      "Ġtrou": 5743,
      "ĠØ´": 5744,
      "ABC": 5745,
      "Ġcontrolled": 5746,
      "Ġchain": 5747,
      "Ġhur": 5748,
      "Ġadaptation": 5749,
      "unk": 5750,
      "ovember": 5751,
      "Ġintegral": 5752,
      "oot": 5753,
      "Ġshaped": 5754,
      "iological": 5755,
      "board": 5756,
      "ĠJewish": 5757,
      "Ġfaster": 5758,
      "Ġresource": 5759,
      "Ġsummer": 5760,
      "aker": 5761,
      "Ġsurrounding": 5762,
      "ticed": 5763,
      ")=": 5764,
      "Ġtemper": 5765,
      "ĠWould": 5766,
      "Ġreported": 5767,
      "Ġfloor": 5768,
      "Ġ;": 5769,
      "ield": 5770,
      "Ĳ×": 5771,
      "à¬¾": 5772,
      "Ġrestaurant": 5773,
      "Ġded": 5774,
      "ding": 5775,
      "ĠExpress": 5776,
      "Ġparad": 5777,
      "Ġmissing": 5778,
      "Ġforward": 5779,
      "approx": 5780,
      "Ġcollabor": 5781,
      "Ġquarter": 5782,
      "Ġcoefficients": 5783,
      "Ġexperienced": 5784,
      "ĠEn": 5785,
      "Ġstem": 5786,
      "ãģĹ": 5787,
      "Ġdefense": 5788,
      "Ġreached": 5789,
      "vere": 5790,
      "ension": 5791,
      "URN": 5792,
      "Ġmicro": 5793,
      "ecutive": 5794,
      "Ġfalse": 5795,
      "\")": 5796,
      "Ques": 5797,
      "ĠDoes": 5798,
      "Ġsymmet": 5799,
      "Ġinterval": 5800,
      "Ġbodies": 5801,
      "graph": 5802,
      "{t": 5803,
      "ĠDecember": 5804,
      "Ġtried": 5805,
      "Ġtissue": 5806,
      "Ġfle": 5807,
      "otes": 5808,
      "Cons": 5809,
      "Ġwidely": 5810,
      "Ġcorresponding": 5811,
      "hold": 5812,
      "Ġescape": 5813,
      "triangle": 5814,
      "neg": 5815,
      "Ġcenters": 5816,
      "pread": 5817,
      "Ġple": 5818,
      "à´¾": 5819,
      "ym": 5820,
      "Ġcellular": 5821,
      "Ġscene": 5822,
      "PRO": 5823,
      "Ġrace": 5824,
      "Ġconcentration": 5825,
      "ilateral": 5826,
      "ĠBel": 5827,
      "Ġstatements": 5828,
      "Ġbind": 5829,
      "Ġdecade": 5830,
      "Ġeye": 5831,
      "ĠCatholic": 5832,
      "ka": 5833,
      "Ġunable": 5834,
      "Ġfaces": 5835,
      "_TURN": 5836,
      "Ġseeing": 5837,
      "Ġunderstood": 5838,
      "ĠThom": 5839,
      "Ġpainting": 5840,
      "Ġprop": 5841,
      "Ġunf": 5842,
      "enses": 5843,
      "Ġintervention": 5844,
      "Ġpat": 5845,
      "Ġwalk": 5846,
      "Ġhear": 5847,
      "Ġonto": 5848,
      "###": 5849,
      "umi": 5850,
      "Ġmeets": 5851,
      "oted": 5852,
      "Ġnations": 5853,
      "Ġformat": 5854,
      "Ġrare": 5855,
      "ĠKingdom": 5856,
      "Ġoperating": 5857,
      "Ġcas": 5858,
      "apped": 5859,
      "Ġdefic": 5860,
      "uing": 5861,
      "Ġprogression": 5862,
      "Ġindicate": 5863,
      "ĠInstead": 5864,
      "ollow": 5865,
      "Ġequivalent": 5866,
      "ests": 5867,
      "à¨¾à¨": 5868,
      "Ġestablishment": 5869,
      "Ġreveals": 5870,
      "Al": 5871,
      "Ġcontributions": 5872,
      "++Ċ": 5873,
      "++++++++++Ċ": 5874,
      "ĠLou": 5875,
      "Ġparticipants": 5876,
      "Ġimpacts": 5877,
      "Ġsales": 5878,
      "Ġport": 5879,
      "Ġmeant": 5880,
      "turb": 5881,
      "Ġenab": 5882,
      "Ġopposition": 5883,
      "Ġruns": 5884,
      "idespread": 5885,
      "Ġparticles": 5886,
      "Ġrise": 5887,
      "rain": 5888,
      "house": 5889,
      "Ġdepart": 5890,
      "Ġhierarch": 5891,
      "Ġenter": 5892,
      "Ġpredict": 5893,
      "Ġmountain": 5894,
      "Ġwall": 5895,
      "Ġterritory": 5896,
      "otel": 5897,
      "Ġincorrect": 5898,
      "These": 5899,
      "Ġreducing": 5900,
      "-cent": 5901,
      "Ġdiam": 5902,
      "Ġbeautiful": 5903,
      "ĠRead": 5904,
      "Ġminim": 5905,
      "ĠGl": 5906,
      "Ġalthough": 5907,
      "Det": 5908,
      "Ġproposed": 5909,
      "rome": 5910,
      "Ġdifferently": 5911,
      "Ġseeking": 5912,
      "Ġ((-": 5913,
      "Ġaccident": 5914,
      "Ġelection": 5915,
      "Ġpicture": 5916,
      "ĠDon": 5917,
      "udden": 5918,
      "ĠPeople": 5919,
      "amma": 5920,
      "while": 5921,
      "Ġarchitecture": 5922,
      "Ġimplemented": 5923,
      "Ġended": 5924,
      "Ġwidespread": 5925,
      "à®¾": 5926,
      "Ġlung": 5927,
      "Ġbought": 5928,
      "Ġvaries": 5929,
      "metic": 5930,
      "Ġconclud": 5931,
      "Ġsentiment": 5932,
      "Ġuseful": 5933,
      "Ġreliable": 5934,
      "Ä±": 5935,
      "(d": 5936,
      "Ne": 5937,
      "Ġsugar": 5938,
      "Ġround": 5939,
      "ĠHen": 5940,
      "Ġadopted": 5941,
      "Ġfas": 5942,
      "AD": 5943,
      "]{": 5944,
      "ldots": 5945,
      "Ġwaste": 5946,
      "Explanation": 5947,
      "ĠMuslim": 5948,
      "Ġdry": 5949,
      "Ġclassify": 5950,
      "more": 5951,
      "rea": 5952,
      "Ġsupporting": 5953,
      "Ġteams": 5954,
      "Ġinterested": 5955,
      "Ġphrase": 5956,
      "bra": 5957,
      "BLE": 5958,
      "oxide": 5959,
      "itness": 5960,
      "Ġeasily": 5961,
      "Ġalcohol": 5962,
      "Ġdemocratic": 5963,
      "{R": 5964,
      "ĠNovember": 5965,
      "Ġwait": 5966,
      "Ġscore": 5967,
      "liament": 5968,
      "Ġbehaviors": 5969,
      "Ġchosen": 5970,
      "à¸Ļ": 5971,
      "ĠWithout": 5972,
      "Ġvision": 5973,
      "ĠInternational": 5974,
      "Ġcultures": 5975,
      "ĠÙħÛĮ": 5976,
      "Ġexceed": 5977,
      "Ġhabit": 5978,
      "Ġcarry": 5979,
      "Ġ(\"": 5980,
      "Ġcreation": 5981,
      "Sent": 5982,
      "Ġmist": 5983,
      "aly": 5984,
      "ĠRed": 5985,
      "ĠWhite": 5986,
      "istant": 5987,
      "Ġtheorem": 5988,
      "eper": 5989,
      "Ġensuring": 5990,
      "ifth": 5991,
      "Ġauthorities": 5992,
      "Ġgap": 5993,
      "ĠMichael": 5994,
      "ibilities": 5995,
      "Ġnegoti": 5996,
      "Ġopi": 5997,
      "ĠThus": 5998,
      "Ġstreet": 5999,
      "Ġengineering": 6000,
      "Ġmotor": 6001,
      "Ġaspect": 6002,
      "ads": 6003,
      "ĠParis": 6004,
      "ips": 6005,
      "ØŃ": 6006,
      "miss": 6007,
      "wide": 6008,
      "à¬°": 6009,
      "Ġsample": 6010,
      "Ġinterven": 6011,
      "Ġjusti": 6012,
      "Ġjudicial": 6013,
      "Ġhem": 6014,
      "(u": 6015,
      "Ġterritorial": 6016,
      "kes": 6017,
      "Ã³n": 6018,
      "Ġdont": 6019,
      "Ġguess": 6020,
      "Ġmort": 6021,
      "Ġwhom": 6022,
      "ek": 6023,
      "ĠRes": 6024,
      "Ġpark": 6025,
      "ĠWilliam": 6026,
      "(h": 6027,
      "ĠEm": 6028,
      "ĠHigh": 6029,
      "van": 6030,
      "EF": 6031,
      "ink": 6032,
      "ocation": 6033,
      "asty": 6034,
      "Ø©": 6035,
      "hick": 6036,
      "Ġentered": 6037,
      "Ġreci": 6038,
      "eles": 6039,
      "-digit": 6040,
      "ĠâĢĶ": 6041,
      "Ġcriteria": 6042,
      "Ġguidance": 6043,
      "ida": 6044,
      "ented": 6045,
      "ĠMad": 6046,
      "Ġcoffee": 6047,
      "Ġtrigger": 6048,
      "level": 6049,
      "Ġarchae": 6050,
      "isis": 6051,
      "cipl": 6052,
      "Ø§ÙĦ": 6053,
      "Ġdrawn": 6054,
      "valuate": 6055,
      "Ġexistence": 6056,
      "Ġmeasurements": 6057,
      "ãģĦ": 6058,
      "ĠCD": 6059,
      "istry": 6060,
      "Ġuns": 6061,
      "Ġconflicts": 6062,
      "Ġsomewhat": 6063,
      "Ġsen": 6064,
      "BLEM": 6065,
      "mitted": 6066,
      "ĠChrist": 6067,
      "Ġsplit": 6068,
      "ĠWashington": 6069,
      "Ġcube": 6070,
      "Ġdoctr": 6071,
      "Ġpret": 6072,
      "Ġimmune": 6073,
      "Ġorganized": 6074,
      "Ġretain": 6075,
      "SOL": 6076,
      "Ġintr": 6077,
      "Ġlooked": 6078,
      "Ġtraff": 6079,
      "Ġnotice": 6080,
      "ĠCentral": 6081,
      "à´¾à´": 6082,
      "Ġequipment": 6083,
      "Ġlived": 6084,
      "ford": 6085,
      "Ġfalls": 6086,
      "Ġaudience": 6087,
      "Ġmedieval": 6088,
      "iliar": 6089,
      "alk": 6090,
      "áŀ¶": 6091,
      "Detailed": 6092,
      "Ġhun": 6093,
      "elta": 6094,
      "UTION": 6095,
      "Ġmanaged": 6096,
      "ĠWrite": 6097,
      "ĠInstructions": 6098,
      "Ġfeeling": 6099,
      "âĺħâĺħ": 6100,
      "$?": 6101,
      "Ġgene": 6102,
      "à³įà²": 6103,
      "Äģ": 6104,
      "ĠMiddle": 6105,
      "Ġphenomenon": 6106,
      "keting": 6107,
      "Ġmedium": 6108,
      "Ġdangerous": 6109,
      "rors": 6110,
      "thick": 6111,
      "Ġinches": 6112,
      "Ġintended": 6113,
      "Ġmoves": 6114,
      "uits": 6115,
      "Ġcouple": 6116,
      "Ġinteract": 6117,
      "ĠWhere": 6118,
      "Ġappoint": 6119,
      "Ġmanifest": 6120,
      "SOLUTION": 6121,
      "ii": 6122,
      "Ġarmy": 6123,
      "Ġ×Ķ": 6124,
      "Ġautonom": 6125,
      "Ġreduction": 6126,
      "Ġdestroy": 6127,
      "stream": 6128,
      "Ġepis": 6129,
      "Collect": 6130,
      "iffer": 6131,
      "Ġsovere": 6132,
      "Af": 6133,
      "Ġdefend": 6134,
      "PROBLEM": 6135,
      "Ġmix": 6136,
      "Ġund": 6137,
      "Ġster": 6138,
      "urance": 6139,
      "Ġreform": 6140,
      "Ġimproved": 6141,
      "tles": 6142,
      "Ġuniversal": 6143,
      "Ġ['": 6144,
      "ĠPersonY": 6145,
      "Ġoblig": 6146,
      "Ġtub": 6147,
      "Ġspending": 6148,
      "ĠMark": 6149,
      "Ġsongs": 6150,
      "celer": 6151,
      "Ġsegment": 6152,
      "Ġethical": 6153,
      "otic": 6154,
      "utation": 6155,
      "endment": 6156,
      "Ġabandon": 6157,
      "Ġkm": 6158,
      "Ġshar": 6159,
      "Ġproteins": 6160,
      "Ġtemporal": 6161,
      "Ġvariable": 6162,
      "Ġextr": 6163,
      "ajec": 6164,
      "Ġcomponent": 6165,
      "Ġthick": 6166,
      "Ġuser": 6167,
      "Ġatmosphere": 6168,
      "Ġclosed": 6169,
      "Ġfavorable": 6170,
      "Ġsatisfies": 6171,
      "Ġreligion": 6172,
      "Ġchance": 6173,
      "Ġeffort": 6174,
      "ĠArt": 6175,
      "$-": 6176,
      "Ø®": 6177,
      "Ġdescribing": 6178,
      "à®¾à®": 6179,
      "ĠRich": 6180,
      "Ġtrajec": 6181,
      "Ġfewer": 6182,
      "Ġnewsp": 6183,
      "Ġadoption": 6184,
      "Ġvirus": 6185,
      "Ġinstrument": 6186,
      "Ġbud": 6187,
      "Ġexcess": 6188,
      "ĠDep": 6189,
      "Ġdrin": 6190,
      "Ġsched": 6191,
      "Ġoriginally": 6192,
      "Ġreco": 6193,
      "Ch": 6194,
      "Ġsole": 6195,
      "utch": 6196,
      "-M": 6197,
      "-up": 6198,
      "Ġlibr": 6199,
      "ĠĠĠĠĠĠ": 6200,
      "ithmetic": 6201,
      "Ġbrief": 6202,
      "àµģà´": 6203,
      "Ġinterpre": 6204,
      "Ġobservation": 6205,
      "Ġmathematic": 6206,
      "Ġordered": 6207,
      "Ġvectors": 6208,
      "ien": 6209,
      "reg": 6210,
      "Ġpreven": 6211,
      "ius": 6212,
      "ca": 6213,
      "à«Ģ": 6214,
      "(v": 6215,
      "ĠTri": 6216,
      "ĠMod": 6217,
      "Ġaid": 6218,
      "Ġparticipation": 6219,
      "Ġtalking": 6220,
      "greg": 6221,
      "bal": 6222,
      "asket": 6223,
      ",âĢĿ": 6224,
      "Ġlearned": 6225,
      "ients": 6226,
      "Ġvast": 6227,
      "Ġcreative": 6228,
      "ĠPersian": 6229,
      "Ġknew": 6230,
      "Ġbattle": 6231,
      "Ġ$-": 6232,
      "Ġethnic": 6233,
      "Ġfine": 6234,
      "tery": 6235,
      "Ġshowed": 6236,
      "ĠStr": 6237,
      "Ġturns": 6238,
      "cop": 6239,
      "Ġtrust": 6240,
      "Ġneighbor": 6241,
      "cks": 6242,
      "ĠPen": 6243,
      "(q": 6244,
      "Ġrecorded": 6245,
      "Ġdescribes": 6246,
      "Ġsites": 6247,
      "Ġstudied": 6248,
      "tiny": 6249,
      "Ġsnow": 6250,
      "Ġprojects": 6251,
      "Ġproblematic": 6252,
      "Ġdiplomatic": 6253,
      "eological": 6254,
      "Ġvess": 6255,
      "Ġemployees": 6256,
      "Ġmaxim": 6257,
      "racy": 6258,
      "Ġcomputational": 6259,
      "Ġfrequently": 6260,
      "Ġpassed": 6261,
      "Ġrecognize": 6262,
      "tank": 6263,
      "Ġmolecules": 6264,
      "Ġdro": 6265,
      "Ġprotocols": 6266,
      "-like": 6267,
      "ĠMac": 6268,
      "Ġfascin": 6269,
      "ĠFranc": 6270,
      "Ġproved": 6271,
      "Ġenforcement": 6272,
      "Ġsuitable": 6273,
      "(w": 6274,
      "Ġpush": 6275,
      "eq": 6276,
      "ece": 6277,
      "Ġinsight": 6278,
      "hrow": 6279,
      "ĠBuddhist": 6280,
      "(l": 6281,
      "âĨĴ": 6282,
      "Ġacceler": 6283,
      "antly": 6284,
      "ĠØ¨Ùĩ": 6285,
      "ï¼": 6286,
      "ĠBob": 6287,
      "Ġagg": 6288,
      "Ġneighb": 6289,
      "à¤²": 6290,
      "Ġchrom": 6291,
      "Ġlose": 6292,
      "ĠEastern": 6293,
      "eds": 6294,
      "ãģ¨": 6295,
      "-time": 6296,
      "tracted": 6297,
      "Ġtries": 6298,
      "Ġacknow": 6299,
      "osis": 6300,
      "Ġadequ": 6301,
      "Ġdiscovered": 6302,
      "Ġcatch": 6303,
      "Ġsof": 6304,
      "ĠLaw": 6305,
      "Ġadver": 6306,
      "Ġlegislative": 6307,
      "Ġmassive": 6308,
      "ina": 6309,
      "eror": 6310,
      "duct": 6311,
      "Ġedge": 6312,
      "Ġmarkets": 6313,
      "anda": 6314,
      "Ġconsistently": 6315,
      "Ġdisplay": 6316,
      "ä¸": 6317,
      "etal": 6318,
      "Ġtank": 6319,
      "==": 6320,
      "(j": 6321,
      "Ġrelates": 6322,
      "Ġà¤®": 6323,
      "Ġinterconn": 6324,
      "Ġvariation": 6325,
      "Ġdemands": 6326,
      "Ġdifferenti": 6327,
      "Ġuniform": 6328,
      "Ġexpon": 6329,
      "Ġgarden": 6330,
      "ĠBill": 6331,
      "ĠAmericans": 6332,
      "Ġvarying": 6333,
      "Ġgod": 6334,
      "Ġdramatic": 6335,
      "Ġjournal": 6336,
      "Ġox": 6337,
      "throw": 6338,
      "Ġcontrovers": 6339,
      "On": 6340,
      "Ġbirds": 6341,
      "ui": 6342,
      "son": 6343,
      "At": 6344,
      "Ġremoved": 6345,
      "Ġhelping": 6346,
      "Ġbridge": 6347,
      "Options": 6348,
      "oon": 6349,
      "ux": 6350,
      "Read": 6351,
      "Ġunp": 6352,
      "Ġsav": 6353,
      "Ġexpanded": 6354,
      "-related": 6355,
      "áĢ": 6356,
      "olid": 6357,
      "Ġdistinctive": 6358,
      "Ġshot": 6359,
      "Ġstanding": 6360,
      "Ġkilomet": 6361,
      "Ġapart": 6362,
      "orrow": 6363,
      "Ġcalls": 6364,
      "ading": 6365,
      "hentic": 6366,
      "ãĤĭ": 6367,
      "Ġveget": 6368,
      "ĠFebruary": 6369,
      "Ġprofit": 6370,
      "ado": 6371,
      "Using": 6372,
      "Ġrepeated": 6373,
      "Ġyellow": 6374,
      "Ġwestern": 6375,
      "IS": 6376,
      "urn": 6377,
      "Ġconventional": 6378,
      "ĠSci": 6379,
      "ĠØ¢": 6380,
      "Ġagreement": 6381,
      "adian": 6382,
      "eless": 6383,
      "Ġpaid": 6384,
      "ĠMe": 6385,
      "ĠSat": 6386,
      "Ġperformed": 6387,
      "Ġsurpr": 6388,
      "ĠQue": 6389,
      "Ġreasonable": 6390,
      "Ġbigger": 6391,
      "overrightarrow": 6392,
      "Ġsounds": 6393,
      "Ġcolors": 6394,
      "}-": 6395,
      "Ġbacteria": 6396,
      "Ġpermanent": 6397,
      "ÂĢ": 6398,
      "Ġpull": 6399,
      "Ġremarkable": 6400,
      "à¬¿": 6401,
      "Ġconscious": 6402,
      "ĠFin": 6403,
      "ĠGal": 6404,
      "ĠKe": 6405,
      "Ġsand": 6406,
      "roid": 6407,
      "ician": 6408,
      "Ġpositioning": 6409,
      "$ĊĊ": 6410,
      "Ġartists": 6411,
      "Ġengagement": 6412,
      "ĠItaly": 6413,
      "Ġing": 6414,
      "heological": 6415,
      "ĠAtl": 6416,
      "Ġcompens": 6417,
      "Ġadvoc": 6418,
      "Ġliquid": 6419,
      "Ġwriter": 6420,
      "Ġfuel": 6421,
      "ÂĢÂ": 6422,
      "×ľ": 6423,
      "Ġexpensive": 6424,
      "Ġphysics": 6425,
      "Ùĥ": 6426,
      "Ġrevenue": 6427,
      "Ġbeliefs": 6428,
      "Ġdeliver": 6429,
      "igenous": 6430,
      "Ġnuanced": 6431,
      "Ġmessage": 6432,
      "-se": 6433,
      "Ġwinter": 6434,
      "Ġconfig": 6435,
      "à¹Ī": 6436,
      "Ġinteraction": 6437,
      "Ġstudying": 6438,
      "burg": 6439,
      "Ġenhance": 6440,
      "Ġdominant": 6441,
      "Ġaccounts": 6442,
      "Ġanatom": 6443,
      "Ġnice": 6444,
      "theological": 6445,
      "Ġconsumer": 6446,
      "Ġlaunch": 6447,
      "uman": 6448,
      "ike": 6449,
      "Ġintelligence": 6450,
      "Ġtheological": 6451,
      "Ġlooks": 6452,
      "Ġintens": 6453,
      "Ġtemperatures": 6454,
      "Ġwindow": 6455,
      "Ġboard": 6456,
      "ĠÙģ": 6457,
      "Ġcalculations": 6458,
      "ãĥ¼": 6459,
      "rep": 6460,
      "Ġmanaging": 6461,
      "Ġsees": 6462,
      "Ġrows": 6463,
      "Ġending": 6464,
      "mas": 6465,
      "+b": 6466,
      "Ġtick": 6467,
      "amine": 6468,
      "Ġwaves": 6469,
      "Ġhealthy": 6470,
      "ells": 6471,
      "ĠUsing": 6472,
      "ĠTer": 6473,
      "Ġhorm": 6474,
      "Ĵáŀ": 6475,
      "ifications": 6476,
      "Ġconsecutive": 6477,
      "Ġconsult": 6478,
      "dy": 6479,
      "Ġcompounds": 6480,
      "Ġ...": 6481,
      "Ġdiagnostic": 6482,
      "Ġbuildings": 6483,
      "Ġcerem": 6484,
      "Ġroll": 6485,
      "Ġchec": 6486,
      "ographical": 6487,
      "Ġquiet": 6488,
      "amps": 6489,
      "ĠCap": 6490,
      "Ġappearance": 6491,
      "ugh": 6492,
      "xic": 6493,
      "Ġprofound": 6494,
      "Ð»": 6495,
      "rey": 6496,
      "ĠArabic": 6497,
      "Ġrecently": 6498,
      "ĠOcean": 6499,
      "Ġtopic": 6500,
      "Ġmachin": 6501,
      "ĠGeneral": 6502,
      "Ġprofession": 6503,
      "Ġremove": 6504,
      "Ġgramm": 6505,
      "Ġoutcome": 6506,
      "Ġvertex": 6507,
      "Ġterror": 6508,
      "Ã¢": 6509,
      "Ġdistrict": 6510,
      "Ġroyal": 6511,
      "Ġorganisms": 6512,
      "Ġopin": 6513,
      "Ġscri": 6514,
      "Ġyounger": 6515,
      "eum": 6516,
      "Ġcompeting": 6517,
      "(o": 6518,
      "Ġdimensions": 6519,
      "Ġaccum": 6520,
      "Ġmir": 6521,
      "Ġexem": 6522,
      "Ins": 6523,
      "Ġends": 6524,
      "Ġcoordinate": 6525,
      "Ġrequirement": 6526,
      "Ġadjust": 6527,
      "!!!!": 6528,
      "Ġcommitment": 6529,
      "Ġconcl": 6530,
      "ocial": 6531,
      "Ġanyone": 6532,
      "Ġjurisdiction": 6533,
      "After": 6534,
      "Ġintegrated": 6535,
      "Ġjourney": 6536,
      "-of": 6537,
      "Ġentertain": 6538,
      "-con": 6539,
      "eding": 6540,
      "Ġmagnetic": 6541,
      "Ġil": 6542,
      "Ġemployment": 6543,
      "Ġreactions": 6544,
      "Ġcrisis": 6545,
      "oice": 6546,
      "Ġfocusing": 6547,
      "àª¨": 6548,
      "Ġadults": 6549,
      "nner": 6550,
      "eories": 6551,
      "heories": 6552,
      "áŁĴáŀ": 6553,
      "Ġetc": 6554,
      "Ġimperial": 6555,
      "Ġbrand": 6556,
      "Ġauthentic": 6557,
      "theories": 6558,
      "à¦¨": 6559,
      "Ġeating": 6560,
      "Ġdynamic": 6561,
      "ĠReg": 6562,
      "à©Ģ": 6563,
      "esting": 6564,
      "Ġrestrictions": 6565,
      "cdots": 6566,
      "Ġideal": 6567,
      "ascular": 6568,
      "Ġtheories": 6569,
      "Ġresponsibility": 6570,
      "rics": 6571,
      "Ġselected": 6572,
      "));Ċ": 6573,
      "Ġattend": 6574,
      "Ġven": 6575,
      "Ġarchitectural": 6576,
      "ĠCharles": 6577,
      "Ġrecovery": 6578,
      "come": 6579,
      "âĨĴtext": 6580,
      "ĠGenerate": 6581,
      "Ġvictim": 6582,
      "ĠMet": 6583,
      "Determine": 6584,
      "Ġexamples": 6585,
      "Ġupper": 6586,
      "Ġaddressing": 6587,
      "Ġmarketing": 6588,
      "Ġcoal": 6589,
      "Ġmonit": 6590,
      "rog": 6591,
      "Ġpreservation": 6592,
      "tition": 6593,
      "Ġscenarios": 6594,
      "nting": 6595,
      "Ġeasy": 6596,
      "book": 6597,
      "ormal": 6598,
      "Ġgradual": 6599,
      "urrent": 6600,
      "reshold": 6601,
      "ĠPeter": 6602,
      "itage": 6603,
      "ordination": 6604,
      "itz": 6605,
      "negative": 6606,
      "Ġdomain": 6607,
      "Ġslight": 6608,
      "ĠRev": 6609,
      "orage": 6610,
      "{y": 6611,
      "Ġrecep": 6612,
      "rence": 6613,
      "lie": 6614,
      "Ġvoting": 6615,
      "ĠRoy": 6616,
      "Consider": 6617,
      "ĠAC": 6618,
      "erves": 6619,
      "ulous": 6620,
      "ÙĪØ±": 6621,
      "Ġnumerical": 6622,
      "titude": 6623,
      "cription": 6624,
      "tag": 6625,
      "ĠClass": 6626,
      "Ġpeak": 6627,
      "Ġhistorically": 6628,
      "Ġimplies": 6629,
      "forward": 6630,
      "Ġlat": 6631,
      "Ġbread": 6632,
      "Ġlimits": 6633,
      "ĠJim": 6634,
      "Ġcode": 6635,
      "Ġmanufacturing": 6636,
      "estival": 6637,
      "Ġwai": 6638,
      "Ġpersonality": 6639,
      "}}{\\": 6640,
      "uation": 6641,
      "tile": 6642,
      "Ġprecision": 6643,
      "ropol": 6644,
      "ĠKorea": 6645,
      "Ġofficially": 6646,
      "hreshold": 6647,
      "aded": 6648,
      "Ġboys": 6649,
      "onald": 6650,
      "ãĢĤ": 6651,
      "tware": 6652,
      "ĠPolish": 6653,
      "Ġpolar": 6654,
      "aven": 6655,
      "ØĮ": 6656,
      "Ġkept": 6657,
      "Ġstructured": 6658,
      "Evaluate": 6659,
      "ĠLuc": 6660,
      "Ġcombinations": 6661,
      "ato": 6662,
      "ails": 6663,
      "enty": 6664,
      "rd": 6665,
      "ĠOt": 6666,
      "plication": 6667,
      "Ġeasier": 6668,
      "Ġattach": 6669,
      "itar": 6670,
      "Ġfaith": 6671,
      "inder": 6672,
      "threshold": 6673,
      "uls": 6674,
      "mark": 6675,
      "Ġweapons": 6676,
      "Ġgradually": 6677,
      "ĠOb": 6678,
      "Ġflight": 6679,
      "Ġreferred": 6680,
      "ĠAnt": 6681,
      "Ġsector": 6682,
      "Ġswim": 6683,
      "Sentence": 6684,
      "ĠSum": 6685,
      "ĠBecause": 6686,
      "Ġfamiliar": 6687,
      "ĠRob": 6688,
      "Ġlocations": 6689,
      "OS": 6690,
      "Ġsudden": 6691,
      "ito": 6692,
      "Ġthreshold": 6693,
      "Ġappeared": 6694,
      "ĠSupreme": 6695,
      "Ġarithmetic": 6696,
      "Ġpurely": 6697,
      "Ġexecutive": 6698,
      "Ġseparation": 6699,
      "ĠMore": 6700,
      "Ġmap": 6701,
      "Ġsoldiers": 6702,
      "Ġtom": 6703,
      "Ġvote": 6704,
      "Ġislands": 6705,
      "But": 6706,
      "Ġfascinating": 6707,
      "craft": 6708,
      "Ġathlete": 6709,
      "Ġdocumented": 6710,
      "Ġfluid": 6711,
      "Ġsignal": 6712,
      "Ġrevers": 6713,
      "heat": 6714,
      "net": 6715,
      "áŀ¶áŀ": 6716,
      "Ġconcerned": 6717,
      "race": 6718,
      "Ġsection": 6719,
      "Ġmedicine": 6720,
      "Ġlengths": 6721,
      "à¥įà¤¯": 6722,
      "×¨": 6723,
      "ĠMexico": 6724,
      "anted": 6725,
      "Ġvariety": 6726,
      "ĠAlthough": 6727,
      "Ġsad": 6728,
      "ĠOlymp": 6729,
      "Ġacts": 6730,
      "ĠSubstitu": 6731,
      "Ġdance": 6732,
      "Ġamounts": 6733,
      "Ġviews": 6734,
      "ĠVic": 6735,
      "Ġpremise": 6736,
      "ãģ¦": 6737,
      "Ġproof": 6738,
      "Ġà¤ª": 6739,
      "ĠStud": 6740,
      "ĠLike": 6741,
      "Ġtraffic": 6742,
      "Ġtail": 6743,
      "field": 6744,
      "ĠMag": 6745,
      "Ġprove": 6746,
      "Ġknowing": 6747,
      "Ġregulation": 6748,
      "ita": 6749,
      "Ġelectron": 6750,
      "Ġalle": 6751,
      "Ġorders": 6752,
      "rical": 6753,
      "Ġstone": 6754,
      "ommod": 6755,
      "Ġ.ĊĊ": 6756,
      "Ġviewed": 6757,
      "acific": 6758,
      "Ġsimplify": 6759,
      "Ġgang": 6760,
      "Ġsphere": 6761,
      "tone": 6762,
      "Ġspan": 6763,
      "Ġabsence": 6764,
      "Ġgeneration": 6765,
      "Ġtrends": 6766,
      "ĠFre": 6767,
      "Ġpunish": 6768,
      "imeter": 6769,
      "ounting": 6770,
      "ded": 6771,
      "Ġboxes": 6772,
      "Ġtechnique": 6773,
      "Ġworse": 6774,
      "Ġwealth": 6775,
      "ĠLeague": 6776,
      "Ġwitness": 6777,
      "abi": 6778,
      "ĠChoices": 6779,
      "Ġphrases": 6780,
      "gebra": 6781,
      "Ġfunding": 6782,
      "idden": 6783,
      "Ġhers": 6784,
      "auc": 6785,
      "\\theta": 6786,
      "Ġsummary": 6787,
      "My": 6788,
      "Compute": 6789,
      "ailment": 6790,
      "Ġexperimental": 6791,
      "Ġdialogue": 6792,
      "Gen": 6793,
      "ccc": 6794,
      "ãĤĴ": 6795,
      "Ġconsists": 6796,
      "Ġinnovation": 6797,
      "Ġfresh": 6798,
      "Ġcast": 6799,
      "Ġexperiencing": 6800,
      "Ġdecrease": 6801,
      "west": 6802,
      "Ġrom": 6803,
      "Ġcookies": 6804,
      "Write": 6805,
      "Two": 6806,
      "Ġsettings": 6807,
      "ampions": 6808,
      "++++++++Ċ": 6809,
      "Ġcryst": 6810,
      "ĠViet": 6811,
      "Ġstorage": 6812,
      "ione": 6813,
      "Ġscenario": 6814,
      "Ġcollective": 6815,
      "icular": 6816,
      "uter": 6817,
      ",z": 6818,
      "ĠAsian": 6819,
      "à²¿": 6820,
      "Ġcustomers": 6821,
      "ault": 6822,
      "-th": 6823,
      "Ġarguments": 6824,
      "ĠIran": 6825,
      "Ġnative": 6826,
      "Ġemphasis": 6827,
      "Â²": 6828,
      "Ġguaran": 6829,
      "Ġcalculated": 6830,
      "ji": 6831,
      "wi": 6832,
      "Ġdoctrine": 6833,
      "++++++++++++++++++++++++++++++++": 6834,
      "++++++++++++++++++++++++++++++++Ċ": 6835,
      "fined": 6836,
      "Ġtechnologies": 6837,
      "Ġfindings": 6838,
      "Ġmaster": 6839,
      "Ġvel": 6840,
      "tun": 6841,
      "Stud": 6842,
      "omega": 6843,
      "-yard": 6844,
      "ĠAD": 6845,
      "haps": 6846,
      "ĠIsra": 6847,
      "nem": 6848,
      "Ġtexts": 6849,
      "Ġfoundational": 6850,
      "ĠAlso": 6851,
      "Ġdept": 6852,
      "ompass": 6853,
      "Ġdecreasing": 6854,
      "Ġprotections": 6855,
      "inger": 6856,
      "Ġflat": 6857,
      "eanwhile": 6858,
      "ront": 6859,
      "Ġaccommod": 6860,
      "Ġvit": 6861,
      "Ġcrow": 6862,
      "Ġtriangles": 6863,
      "oe": 6864,
      "Ġprominent": 6865,
      "Ġpresidential": 6866,
      "Ġstruggle": 6867,
      "Ġscreen": 6868,
      "]ĊĊ": 6869,
      "ĠGreen": 6870,
      "cribed": 6871,
      "Ġdepth": 6872,
      "elines": 6873,
      "Ġflexibility": 6874,
      "Ġstick": 6875,
      "Ġguy": 6876,
      "Ġcro": 6877,
      "Ġclosely": 6878,
      "Ġunion": 6879,
      "Ġgri": 6880,
      "apers": 6881,
      "Ġreti": 6882,
      "Ġmilk": 6883,
      "Ġà¤¹": 6884,
      "Ġgover": 6885,
      "Ġwebs": 6886,
      "head": 6887,
      "tise": 6888,
      "Ġfacing": 6889,
      "Ġofficials": 6890,
      "Ġscholarly": 6891,
      "Ġ?Ċ": 6892,
      "Ġdioxide": 6893,
      "emy": 6894,
      "ÙĪØ¯": 6895,
      "ĠØ®": 6896,
      "enth": 6897,
      "Ġreaching": 6898,
      "ĠPal": 6899,
      "Ġsocieties": 6900,
      "Ġphysiological": 6901,
      "Ġstraightforward": 6902,
      "Ġastr": 6903,
      "Ġracial": 6904,
      "Ġevening": 6905,
      "ested": 6906,
      "olf": 6907,
      "-level": 6908,
      "Ġanswerable": 6909,
      "Ġmanip": 6910,
      "Ġmouth": 6911,
      "Ġfertil": 6912,
      "born": 6913,
      "Ġcoordination": 6914,
      "}}$": 6915,
      "Ġachieving": 6916,
      "ĠNote": 6917,
      "-P": 6918,
      "Ġhos": 6919,
      "tall": 6920,
      "à¨°": 6921,
      "Ġempty": 6922,
      "Ġstaff": 6923,
      "ilarly": 6924,
      "Ġsave": 6925,
      "ime": 6926,
      "Ġcompleted": 6927,
      "Ġplanet": 6928,
      "Ġadding": 6929,
      "Ġrecon": 6930,
      "Ġthrow": 6931,
      "Ġlayer": 6932,
      "*(-": 6933,
      "Re": 6934,
      "unicip": 6935,
      "Ġcertainly": 6936,
      "Ġscr": 6937,
      "Ġdecides": 6938,
      "Ġhundreds": 6939,
      "ria": 6940,
      "iling": 6941,
      "Ġbottom": 6942,
      "ĠDay": 6943,
      "ĠMiss": 6944,
      "Ġoverl": 6945,
      "Ġderived": 6946,
      "theat": 6947,
      "ĠJer": 6948,
      "itarian": 6949,
      "Ġrating": 6950,
      "}^{\\": 6951,
      "ĠTail": 6952,
      "Ġpasses": 6953,
      "Ġswe": 6954,
      "Ġbone": 6955,
      "Ġkingdom": 6956,
      "Ġfilled": 6957,
      "icide": 6958,
      "Ġcubic": 6959,
      "Ġdiseases": 6960,
      "style": 6961,
      "Ġaward": 6962,
      "Ġgar": 6963,
      "Ġforest": 6964,
      "Ġbroken": 6965,
      "lav": 6966,
      "Ġencompass": 6967,
      "ĠDi": 6968,
      "ĠFollow": 6969,
      "Ġcamer": 6970,
      "azil": 6971,
      "Ġinvolvement": 6972,
      "Ġgovernments": 6973,
      "ook": 6974,
      "Ġprotective": 6975,
      "gments": 6976,
      "wonder": 6977,
      "Ġsubstitute": 6978,
      "ĠVir": 6979,
      "Ġiden": 6980,
      "Ġsynthesis": 6981,
      "ĠØĮ": 6982,
      "Ġcomplications": 6983,
      "tled": 6984,
      "Ġmuseum": 6985,
      "à¤¸": 6986,
      "Ġtheat": 6987,
      "Com": 6988,
      "ĠAB": 6989,
      "teen": 6990,
      "Both": 6991,
      "à¸£": 6992,
      "Ġmonitoring": 6993,
      "Ġdevices": 6994,
      "isp": 6995,
      "ĠABC": 6996,
      "Ġcontradic": 6997,
      "Ġprogramm": 6998,
      "tei": 6999,
      "Ġvolcan": 7000,
      "Ġpreventing": 7001,
      ".)": 7002,
      "Ġstronger": 7003,
      "ĠMount": 7004,
      "Ġpretty": 7005,
      "Ġsick": 7006,
      "ĠCounty": 7007,
      "endicular": 7008,
      "Ġmand": 7009,
      "Ġelectrical": 7010,
      "mentation": 7011,
      "ĠVietnam": 7012,
      "|\\": 7013,
      "Substitute": 7014,
      "ĠHenry": 7015,
      "Ġbird": 7016,
      "Ġactively": 7017,
      "Ġign": 7018,
      "Ġlie": 7019,
      "Ġpartners": 7020,
      "*}Ċ": 7021,
      "Ġannual": 7022,
      "Ġecological": 7023,
      "Ġrough": 7024,
      "rack": 7025,
      "Ġdiver": 7026,
      "Ġovers": 7027,
      "display": 7028,
      "berg": 7029,
      "Ġbow": 7030,
      "Ġdrink": 7031,
      "-sc": 7032,
      "Ġinfection": 7033,
      "Ġpreserved": 7034,
      "menting": 7035,
      "water": 7036,
      "earr": 7037,
      "Ġstages": 7038,
      "tral": 7039,
      "ufficient": 7040,
      "Ġci": 7041,
      "Ġpredictions": 7042,
      "Ġsoftware": 7043,
      "Ġjustice": 7044,
      "Ġlogic": 7045,
      "Ġdiscipl": 7046,
      "Can": 7047,
      "EN": 7048,
      "lines": 7049,
      "Ġmatters": 7050,
      "Ġpossibly": 7051,
      "Ġteaching": 7052,
      "-sh": 7053,
      "Ġdetection": 7054,
      "ĠSpec": 7055,
      "displaystyle": 7056,
      "Ġmeasured": 7057,
      "Ġequally": 7058,
      "Ġbranch": 7059,
      "Ġske": 7060,
      "Ġsynd": 7061,
      "edy": 7062,
      "UN": 7063,
      "aters": 7064,
      "Ġtall": 7065,
      "ĠBay": 7066,
      "ĠSwed": 7067,
      "Ġtrajectory": 7068,
      "Ġfoss": 7069,
      "body": 7070,
      "Ġestimated": 7071,
      "-off": 7072,
      "Ġcurren": 7073,
      "ĠSouthern": 7074,
      "Ġrank": 7075,
      "ĠâĪ": 7076,
      "eted": 7077,
      "Ġecos": 7078,
      "ĠLouis": 7079,
      "Ġtensions": 7080,
      "Ġexpressions": 7081,
      ".$": 7082,
      "Ġshifts": 7083,
      "Ġidentif": 7084,
      "Ġrocks": 7085,
      "Ġcoefficient": 7086,
      "Ġmaintains": 7087,
      "ãģĮ": 7088,
      "Ġtasks": 7089,
      "iger": 7090,
      "abil": 7091,
      "Ġunre": 7092,
      "ĠTex": 7093,
      "àª°": 7094,
      "Ġholder": 7095,
      "antum": 7096,
      "Ġofficer": 7097,
      "Ġnearby": 7098,
      "plate": 7099,
      "-e": 7100,
      "Ġconqu": 7101,
      "à¸ģ": 7102,
      "Ġfifth": 7103,
      "ĠRobert": 7104,
      "}-\\": 7105,
      "Ġextends": 7106,
      "}.Ċ": 7107,
      "Ġcoverage": 7108,
      "Ġteen": 7109,
      "Ġpercentage": 7110,
      "ĠMil": 7111,
      "Ġrapidly": 7112,
      "Could": 7113,
      "Ġdeli": 7114,
      "Ġhope": 7115,
      "Ġspok": 7116,
      "lamm": 7117,
      "toral": 7118,
      "ÅĤ": 7119,
      "Ġdynasty": 7120,
      "Ġ((": 7121,
      "Ġmerely": 7122,
      "Ø§Ø¯": 7123,
      "à¨¿": 7124,
      "Ġherself": 7125,
      "Ġhotel": 7126,
      "Ġindirect": 7127,
      "Ġfacilities": 7128,
      "Ġvictory": 7129,
      "à¸Ń": 7130,
      "GH": 7131,
      "erg": 7132,
      "Ġsustained": 7133,
      "Ġvia": 7134,
      "Ġdx": 7135,
      "Ġgenre": 7136,
      "bl": 7137,
      "umin": 7138,
      "à°¨": 7139,
      "Ġcoop": 7140,
      "ĠEvery": 7141,
      "Ġinvestigation": 7142,
      "à©ĩ": 7143,
      "position": 7144,
      "Ġnavigate": 7145,
      "{}": 7146,
      "Ġhall": 7147,
      "Ġdiscovery": 7148,
      "-n": 7149,
      "tein": 7150,
      "cher": 7151,
      "Ġcorporate": 7152,
      "Ġpenal": 7153,
      "Ġcong": 7154,
      "well": 7155,
      "Ġfighting": 7156,
      "Ġori": 7157,
      "Ġgenerations": 7158,
      "Ġtag": 7159,
      "ayed": 7160,
      "ĠSar": 7161,
      "hire": 7162,
      "OT": 7163,
      "finition": 7164,
      "Ġparameters": 7165,
      "Ġ\\)Ċ": 7166,
      "Ġresolution": 7167,
      "Ġcars": 7168,
      "ĠMars": 7169,
      "Ġstring": 7170,
      "Ġparent": 7171,
      "ĠOff": 7172,
      "eel": 7173,
      "Ġgenes": 7174,
      "Ġconvert": 7175,
      "Ġpolitics": 7176,
      "Ġrecall": 7177,
      "ston": 7178,
      "Ġexplicitly": 7179,
      "Ġinterconnected": 7180,
      "-B": 7181,
      "hur": 7182,
      "tanding": 7183,
      "ĠDutch": 7184,
      "Ġinstruments": 7185,
      "Ġwatching": 7186,
      "Ġdramatically": 7187,
      "-century": 7188,
      "Ġusage": 7189,
      "Ġalgebra": 7190,
      "Ġreliability": 7191,
      "uke": 7192,
      "Ġshall": 7193,
      "ĠImp": 7194,
      "pal": 7195,
      "Ġconsolid": 7196,
      "Ġentities": 7197,
      "Ġopened": 7198,
      "lder": 7199,
      "Ġacting": 7200,
      "Ġpreferences": 7201,
      "And": 7202,
      "Ġlegitimate": 7203,
      "Ġreflecting": 7204,
      "-spe": 7205,
      "ĠPass": 7206,
      "yt": 7207,
      "yles": 7208,
      "ĠSecond": 7209,
      "ona": 7210,
      "Ġinherent": 7211,
      "ĠGold": 7212,
      "ĠIsland": 7213,
      "Ġswitch": 7214,
      "Ġgluc": 7215,
      "Ġaccessible": 7216,
      "abet": 7217,
      "Ġbasket": 7218,
      "ĠMax": 7219,
      "cast": 7220,
      "ASK": 7221,
      "ession": 7222,
      "do": 7223,
      "Ġidentical": 7224,
      "*-": 7225,
      "Ġcyl": 7226,
      "Ġring": 7227,
      "FT": 7228,
      "fare": 7229,
      "Ġgained": 7230,
      "{B": 7231,
      "Ġjoint": 7232,
      "ĠInter": 7233,
      "era": 7234,
      "{th": 7235,
      "Ø§Ùħ": 7236,
      "mm": 7237,
      "axis": 7238,
      "lar": 7239,
      "Ġempire": 7240,
      "Ġdat": 7241,
      "Ġparadox": 7242,
      "Ġdevelopmental": 7243,
      "Factor": 7244,
      "ĠPacific": 7245,
      "Ġconservation": 7246,
      "Ġdedic": 7247,
      "Ġwalking": 7248,
      "rick": 7249,
      "onym": 7250,
      "Ġfounded": 7251,
      "ĠSi": 7252,
      "à¥įà¤°": 7253,
      "Ġfruit": 7254,
      "Ġtreated": 7255,
      "Ġperpendicular": 7256,
      "'(": 7257,
      "Ġarrives": 7258,
      "Äĥ": 7259,
      "lfloor": 7260,
      "Ġevaluate": 7261,
      "rfloor": 7262,
      "ĠOl": 7263,
      "olar": 7264,
      "exp": 7265,
      "Ġpoet": 7266,
      "à¥¤": 7267,
      "Ġsuppose": 7268,
      "}ĊĊ": 7269,
      "ĠArmy": 7270,
      "ĠKen": 7271,
      "Ġprohib": 7272,
      "Ġtruly": 7273,
      "inary": 7274,
      "pecific": 7275,
      "Ġthermal": 7276,
      "icians": 7277,
      "Ġfinish": 7278,
      "\\}$": 7279,
      "Ġtargeted": 7280,
      "anes": 7281,
      "plete": 7282,
      "Ġprogressive": 7283,
      "Ġacknowled": 7284,
      "Ġwaiting": 7285,
      "Ġinherently": 7286,
      "Ġavailability": 7287,
      "Ġconcrete": 7288,
      "Ġnoticed": 7289,
      "ĠPhilip": 7290,
      "Ġanalyze": 7291,
      "Ġpartner": 7292,
      "Ġemotion": 7293,
      "hyt": 7294,
      "ocked": 7295,
      "ĠCouncil": 7296,
      "neutral": 7297,
      "Ġowner": 7298,
      "ĠBal": 7299,
      "imensional": 7300,
      "à¥ģ": 7301,
      "Ġevaluation": 7302,
      "ĠOver": 7303,
      "Ġcurve": 7304,
      "Ġbudget": 7305,
      "olved": 7306,
      "Ġmari": 7307,
      "Ġcomfort": 7308,
      "heric": 7309,
      "atial": 7310,
      "Ġcircles": 7311,
      "Ġcharges": 7312,
      "Ġresidents": 7313,
      "Ġtemporary": 7314,
      "ayer": 7315,
      "hyth": 7316,
      "Ġrew": 7317,
      "Ġtroops": 7318,
      "Ġliver": 7319,
      "Ġmodul": 7320,
      "Ġfell": 7321,
      "ĠAg": 7322,
      "Ġbomb": 7323,
      "Express": 7324,
      "Ġdoub": 7325,
      "ua": 7326,
      "Ġskill": 7327,
      "Ġraised": 7328,
      "Ġinterventions": 7329,
      "wondering": 7330,
      "Ġjump": 7331,
      "Ġ|Ċ": 7332,
      "asure": 7333,
      "Ġelectronic": 7334,
      "Ġguitar": 7335,
      "Ġwors": 7336,
      "Ø·": 7337,
      "Ġmigration": 7338,
      "Ġveloc": 7339,
      "ivia": 7340,
      "Ġreports": 7341,
      "Ġrevolutionary": 7342,
      "ĠJud": 7343,
      "Ġrecognizing": 7344,
      "ocr": 7345,
      "Ġproduces": 7346,
      "AM": 7347,
      "Ġreputation": 7348,
      "Ġmethodology": 7349,
      "Ġprev": 7350,
      "tore": 7351,
      "Ġerrors": 7352,
      "Ġpollution": 7353,
      "Ġinner": 7354,
      "Ġdepos": 7355,
      "Ġseek": 7356,
      "Ġsymbolic": 7357,
      "case": 7358,
      "Ġfeelings": 7359,
      "Ġnerve": 7360,
      "ĠFl": 7361,
      "Ġopening": 7362,
      "Ġaccepted": 7363,
      "Ġconfidence": 7364,
      "ĠDemocratic": 7365,
      "De": 7366,
      "Ġeggs": 7367,
      "Ġcovered": 7368,
      ")*-": 7369,
      "Ġhandling": 7370,
      "Ġwish": 7371,
      "Ġregulations": 7372,
      "Ġhousehold": 7373,
      "Ġinterpretations": 7374,
      "Ġdeeply": 7375,
      "ĠSpain": 7376,
      "itis": 7377,
      "Ġdriver": 7378,
      "-choice": 7379,
      "uty": 7380,
      "{k": 7381,
      "ĠÙ¾": 7382,
      "Ġadapted": 7383,
      "ĠUN": 7384,
      "Ġbusinesses": 7385,
      "ĠWi": 7386,
      "ares": 7387,
      "acent": 7388,
      "uese": 7389,
      "Ġprocedural": 7390,
      "Ġinverse": 7391,
      "Ġlayers": 7392,
      "Ġcalculation": 7393,
      "Ġju": 7394,
      "ba": 7395,
      "Ġnarrow": 7396,
      "ĠJoe": 7397,
      "Ġmaybe": 7398,
      "Ġoffering": 7399,
      "Ġapartment": 7400,
      "{m": 7401,
      "Ġcontradiction": 7402,
      "ĠDespite": 7403,
      "Ġnoting": 7404,
      "Ġarrived": 7405,
      "Ġsin": 7406,
      "jective": 7407,
      "à¦¼": 7408,
      "Ġdirected": 7409,
      "Ġinjury": 7410,
      "Ġsoft": 7411,
      "Ġoffered": 7412,
      "len": 7413,
      "Sub": 7414,
      "Ġgall": 7415,
      "organ": 7416,
      "Ġnoted": 7417,
      "gets": 7418,
      "Ġguide": 7419,
      "Ġdominance": 7420,
      ".C": 7421,
      "Ġlif": 7422,
      "ãģĻ": 7423,
      "Ġheader": 7424,
      "Ġmagaz": 7425,
      "fr": 7426,
      "Ġworldwide": 7427,
      "Ġdrugs": 7428,
      "Ġperforming": 7429,
      "Ġmal": 7430,
      "Ġvulnerable": 7431,
      "Ġbarriers": 7432,
      "Ġinfinite": 7433,
      "Ġexcep": 7434,
      "ĠHall": 7435,
      "amil": 7436,
      "ĠFrancis": 7437,
      "Ġprol": 7438,
      "ĠBased": 7439,
      "Ġeliminate": 7440,
      "Ġusers": 7441,
      "tweet": 7442,
      "Ġroute": 7443,
      "Ġradical": 7444,
      "ĠWill": 7445,
      "Ġimprovements": 7446,
      "She": 7447,
      "ella": 7448,
      "Ġquantum": 7449,
      "plying": 7450,
      "Ġsyn": 7451,
      "Ġanalyzing": 7452,
      "Ġensures": 7453,
      "Ġempir": 7454,
      "Ġnine": 7455,
      "Ġtreatments": 7456,
      "Ġpil": 7457,
      "Student": 7458,
      "Ġcapable": 7459,
      "Ġmyt": 7460,
      "à¯įà®ķ": 7461,
      "ĠÚ©Ùĩ": 7462,
      "ĠRepublican": 7463,
      "Ġconservative": 7464,
      "Ġreforms": 7465,
      "ĠThomas": 7466,
      "Ġjobs": 7467,
      "atural": 7468,
      "hns": 7469,
      "Rearr": 7470,
      "Ġhoriz": 7471,
      "(\"$": 7472,
      "Ġtweet": 7473,
      "àº²": 7474,
      "Ġexcept": 7475,
      "à®°": 7476,
      "Ġboundary": 7477,
      "reland": 7478,
      "Ġresulted": 7479,
      "rium": 7480,
      "âĢ¦": 7481,
      "Ġdocumentation": 7482,
      "Ġharmful": 7483,
      "ĠSmith": 7484,
      "Ġdebt": 7485,
      "Ġprecisely": 7486,
      "ĠNorthern": 7487,
      "Ġemployed": 7488,
      "ained": 7489,
      "Ġampl": 7490,
      "Ã¨": 7491,
      "Ġritual": 7492,
      "titution": 7493,
      "Ġkilling": 7494,
      "akers": 7495,
      "Ġinterview": 7496,
      "nity": 7497,
      "Ġapplying": 7498,
      "Ġtangent": 7499,
      "Ġmultiply": 7500,
      "Ġbath": 7501,
      "Ġstudio": 7502,
      "Ġchief": 7503,
      "Ġchronic": 7504,
      "Ġassociation": 7505,
      "Ġinhib": 7506,
      "Ġcontributes": 7507,
      "}{(": 7508,
      "Ġrevealed": 7509,
      "Ġcomment": 7510,
      "Ġ×Ķ×": 7511,
      "Ġreviews": 7512,
      "orous": 7513,
      "Ġtaxes": 7514,
      "ĠList": 7515,
      "Ġdogs": 7516,
      "$\",": 7517,
      "Ġsolar": 7518,
      "....": 7519,
      "Ġexpectations": 7520,
      "Ġimpacting": 7521,
      "{the": 7522,
      "vation": 7523,
      "Ġconfir": 7524,
      "Ġsought": 7525,
      "esearch": 7526,
      "ĠAI": 7527,
      "Ġsignals": 7528,
      "gery": 7529,
      "pan": 7530,
      "Ġinduc": 7531,
      "Ġfiction": 7532,
      "Ġant": 7533,
      ".'": 7534,
      "Ġrelate": 7535,
      "Ġconnect": 7536,
      "Ġmostly": 7537,
      "Ġfix": 7538,
      "Ġslope": 7539,
      "ãģª": 7540,
      "Ġalter": 7541,
      "-D": 7542,
      "Ġproducing": 7543,
      "Ġfirm": 7544,
      "turbation": 7545,
      "Ġexclusive": 7546,
      "Ġturning": 7547,
      "Ġpounds": 7548,
      "Ġpassing": 7549,
      "Ġbeach": 7550,
      "Ġcomparing": 7551,
      "Ġrivers": 7552,
      "Ġtimeline": 7553,
      "uous": 7554,
      "Ġdescription": 7555,
      "Ġcomplicated": 7556,
      "isons": 7557,
      "gar": 7558,
      "Ġjudge": 7559,
      "Without": 7560,
      "_k": 7561,
      "ĠGrand": 7562,
      "Ġdoctors": 7563,
      "Ġsecondary": 7564,
      "Ġappeal": 7565,
      "}}\\": 7566,
      "arrying": 7567,
      "à¤¹": 7568,
      "ulty": 7569,
      "Ġsalt": 7570,
      "IV": 7571,
      ")$.ĊĊ": 7572,
      "âģ": 7573,
      "Ġmethodological": 7574,
      "Ġmembr": 7575,
      "tenance": 7576,
      "Ġtherefore": 7577,
      "Ġaircraft": 7578,
      "Ġvisible": 7579,
      "Ġcoach": 7580,
      "Ġplanned": 7581,
      "illy": 7582,
      "ŀ×": 7583,
      "Ġthousand": 7584,
      "ville": 7585,
      "Ġperceived": 7586,
      "rem": 7587,
      "Ġfocuses": 7588,
      "Ġmarbles": 7589,
      "Ġconj": 7590,
      "Ġlasting": 7591,
      "ĠØ¹": 7592,
      "logical": 7593,
      "Ġexamining": 7594,
      "Ġcopy": 7595,
      "Ġcriticism": 7596,
      "Ġaffecting": 7597,
      "Ġslowly": 7598,
      "Ġlegislation": 7599,
      "Ġpet": 7600,
      "Ġfort": 7601,
      "-day": 7602,
      "Ġopportunity": 7603,
      "ÙĪÙĨ": 7604,
      "Ġspi": 7605,
      "Ġlots": 7606,
      "Ġwalls": 7607,
      "Ġpig": 7608,
      "Ġcarried": 7609,
      "Ġdenote": 7610,
      "Ġheritage": 7611,
      "Ġell": 7612,
      "ĠSer": 7613,
      "Ġtrouble": 7614,
      "Ġdeeper": 7615,
      "Ġdisorder": 7616,
      "Ġintegrity": 7617,
      "ĠSal": 7618,
      "Ġthreats": 7619,
      "thor": 7620,
      "**ĊĊ": 7621,
      "Ġtow": 7622,
      "Ġportion": 7623,
      "Øµ": 7624,
      "Ġrecover": 7625,
      "Ġrectangle": 7626,
      "uilding": 7627,
      "ĠLater": 7628,
      "ĠRevolution": 7629,
      "\\).Ċ": 7630,
      "äº": 7631,
      "ĠColle": 7632,
      "pling": 7633,
      "Ġkeeping": 7634,
      "Ġlic": 7635,
      "Ġton": 7636,
      "-L": 7637,
      "Ġminute": 7638,
      "Ġrout": 7639,
      "ĠPortuguese": 7640,
      "Ð°Ð": 7641,
      "Does": 7642,
      "ĠAustralian": 7643,
      "ios": 7644,
      "Convert": 7645,
      "attering": 7646,
      "Ġexplo": 7647,
      "Ġdinner": 7648,
      "ĠRome": 7649,
      "Ġactor": 7650,
      "ashion": 7651,
      "ĠFil": 7652,
      "Ġsucceed": 7653,
      "-hand": 7654,
      "Ġdesire": 7655,
      "emi": 7656,
      "ĠBrazil": 7657,
      "Ġtemplate": 7658,
      "ĠSenate": 7659,
      "{s": 7660,
      "ĠGovern": 7661,
      "}x": 7662,
      "By": 7663,
      "Ġwed": 7664,
      "Ġpip": 7665,
      "entailment": 7666,
      "cend": 7667,
      "Ġpromp": 7668,
      "vals": 7669,
      "Ġsa": 7670,
      "using": 7671,
      "nie": 7672,
      "Ġdistances": 7673,
      "Ġdetect": 7674,
      "Ġdisorders": 7675,
      "ropolitan": 7676,
      "ĠAv": 7677,
      "Ġdistributed": 7678,
      "titutes": 7679,
      "Ġremind": 7680,
      "Ġdevice": 7681,
      "ĠÏ": 7682,
      "Ġhousing": 7683,
      "Ġlinked": 7684,
      "\\):Ċ": 7685,
      "ĠÅ": 7686,
      "à¸ĩ": 7687,
      "onna": 7688,
      "fl": 7689,
      "Ġchildhood": 7690,
      "Ġarchaeological": 7691,
      "Ġdepression": 7692,
      "+y": 7693,
      "Ġedges": 7694,
      "Ġnone": 7695,
      "Ġlegs": 7696,
      "cup": 7697,
      "Ġmov": 7698,
      "Ġarms": 7699,
      "ÚĨ": 7700,
      "}\\),": 7701,
      "Ġmetabolic": 7702,
      "ilib": 7703,
      "Ġmunicip": 7704,
      "titudes": 7705,
      "Ġinhab": 7706,
      "isted": 7707,
      "Ġwondering": 7708,
      "Ġadvice": 7709,
      "Ġsitting": 7710,
      "Ġsurvive": 7711,
      "Ġbinding": 7712,
      "Ġminimal": 7713,
      "Ġgone": 7714,
      "zed": 7715,
      "àŃįà¬": 7716,
      "ĠVi": 7717,
      "Ġreverse": 7718,
      "Ġincident": 7719,
      "ĠVictor": 7720,
      "Ġprosec": 7721,
      "Emily": 7722,
      "Ġsmo": 7723,
      "Ġclothes": 7724,
      "cel": 7725,
      "ployment": 7726,
      "Ġfilter": 7727,
      "ĠØ§Ø²": 7728,
      "(-\\": 7729,
      "Ġpathway": 7730,
      "luding": 7731,
      "Ġownership": 7732,
      "illa": 7733,
      "yan": 7734,
      "ĠKorean": 7735,
      "Ġcontributing": 7736,
      "OK": 7737,
      "Ġplus": 7738,
      "Ġseconds": 7739,
      "ĠSing": 7740,
      "Ġsequences": 7741,
      "Ġcooperation": 7742,
      "à¹Ģ": 7743,
      "ĠAtlantic": 7744,
      "Ġrely": 7745,
      "Ġquadr": 7746,
      "ĠOld": 7747,
      "ĠKh": 7748,
      "kin": 7749,
      "Ġkilometers": 7750,
      "Ġintense": 7751,
      "Ġspatial": 7752,
      "Ġemergency": 7753,
      "Ġconduct": 7754,
      "abs": 7755,
      "Ġlegacy": 7756,
      "class": 7757,
      "Ġunus": 7758,
      "ED": 7759,
      "Ġpharm": 7760,
      "ĠLee": 7761,
      "brew": 7762,
      "elled": 7763,
      "Ġsupports": 7764,
      "Ġmaintenance": 7765,
      "neq": 7766,
      "ackson": 7767,
      "Ġwilling": 7768,
      "Ġplate": 7769,
      "âĢ¯": 7770,
      "Ġfly": 7771,
      "^x": 7772,
      "Ġimplementing": 7773,
      "}:": 7774,
      "Cl": 7775,
      "Ġevolve": 7776,
      "Ġvehicle": 7777,
      "Ġgrew": 7778,
      "Ġliability": 7779,
      "Ġdestin": 7780,
      "Ġtransformed": 7781,
      "Ġdiscour": 7782,
      "rogen": 7783,
      "Ġpurchase": 7784,
      "Ġmatches": 7785,
      "Ġaccomp": 7786,
      "Ġrural": 7787,
      "Ġsinger": 7788,
      "àºĻ": 7789,
      "icago": 7790,
      "ouns": 7791,
      "ota": 7792,
      "Ġenhanced": 7793,
      "ãĥ³": 7794,
      "à§ĩà¦": 7795,
      "Ġtraits": 7796,
      "Ġphenomena": 7797,
      "Ġpricing": 7798,
      "\\text": 7799,
      "Ġwarfare": 7800,
      "Ġroutes": 7801,
      "aqu": 7802,
      "Ġobjective": 7803,
      "à°¿à°": 7804,
      "ĠLos": 7805,
      "ĠOPTIONS": 7806,
      "Ġeastern": 7807,
      "entation": 7808,
      "Ġfeels": 7809,
      "Ġexhibit": 7810,
      "Ġ\"\"": 7811,
      "Ġyout": 7812,
      "à¤¾à¤°": 7813,
      "-ex": 7814,
      "Ġcaptured": 7815,
      "Ġclassified": 7816,
      "Ġwinning": 7817,
      "Ġ{\\": 7818,
      "Ġlibrary": 7819,
      "Ġstock": 7820,
      "Ġinfluential": 7821,
      "Ġbuying": 7822,
      "Ġfinite": 7823,
      "Ġstated": 7824,
      "ĠWater": 7825,
      "Next": 7826,
      "Ġdocuments": 7827,
      "war": 7828,
      "ĠOnce": 7829,
      "ĠMond": 7830,
      "Ġincl": 7831,
      "Ġmeat": 7832,
      "à¹ī": 7833,
      "Ġyield": 7834,
      "Ġshorter": 7835,
      "Ġmanager": 7836,
      "gical": 7837,
      "town": 7838,
      "Ġsigned": 7839,
      "ĠCO": 7840,
      "ĠCas": 7841,
      "Ġcounty": 7842,
      "Ġculti": 7843,
      "Ġobjectives": 7844,
      "ais": 7845,
      "Ġmas": 7846,
      "Ġsyndrome": 7847,
      "Ġunified": 7848,
      "Ġlosing": 7849,
      "Ġbio": 7850,
      "date": 7851,
      "Ġspot": 7852,
      "anta": 7853,
      "ulative": 7854,
      "ĠMrs": 7855,
      "gu": 7856,
      "Ġwearing": 7857,
      "Ġtourism": 7858,
      "Ġhearing": 7859,
      "Ġenables": 7860,
      "ĠÙĦ": 7861,
      "Ġcrew": 7862,
      "Ġassistance": 7863,
      "Ġduration": 7864,
      "Ġdrawing": 7865,
      "Ġcomposed": 7866,
      "icks": 7867,
      "Ġatmospheric": 7868,
      "ÐµÐ": 7869,
      "Ġslightly": 7870,
      "Ġflood": 7871,
      "Ġsort": 7872,
      "Ġmagnit": 7873,
      "ĠConf": 7874,
      "Ġinn": 7875,
      "Ġtied": 7876,
      "icate": 7877,
      "uh": 7878,
      "Ġoperated": 7879,
      "ĠIreland": 7880,
      "ris": 7881,
      "uzz": 7882,
      "Ġmathematics": 7883,
      "Ġsky": 7884,
      "\\{": 7885,
      "zen": 7886,
      "Ġsettlement": 7887,
      "Ġstopped": 7888,
      "Ġnormally": 7889,
      "Ġadvertis": 7890,
      "Ġemerging": 7891,
      "Ġliberal": 7892,
      "ulties": 7893,
      "Ġofficers": 7894,
      "Ġcloser": 7895,
      "Ġinsurance": 7896,
      "Ġconducted": 7897,
      "Ġcredit": 7898,
      "Ġcentre": 7899,
      "Ġdepic": 7900,
      "ĠJus": 7901,
      "Ġorganic": 7902,
      "ĠTurk": 7903,
      "ector": 7904,
      "Ġjoin": 7905,
      "Ġempirical": 7906,
      "Ġneither": 7907,
      "Ġexposed": 7908,
      "atal": 7909,
      "Ġcampaigns": 7910,
      "Ġconceptual": 7911,
      "Multi": 7912,
      "Ġsend": 7913,
      "Ġlake": 7914,
      "Ġindigenous": 7915,
      "Ġsigns": 7916,
      "Ġdeparture": 7917,
      "à¯įà®¤": 7918,
      "Ġlas": 7919,
      "Ġartic": 7920,
      "ĠGood": 7921,
      "Ġcircular": 7922,
      "dots": 7923,
      "Ġdream": 7924,
      "ĠOp": 7925,
      "xiety": 7926,
      "uma": 7927,
      "Ġmyth": 7928,
      "Ġcomplementary": 7929,
      "Ġheads": 7930,
      "ĠJul": 7931,
      "ĠMeanwhile": 7932,
      "Ġstyles": 7933,
      "Ġhuge": 7934,
      "ilibrium": 7935,
      "Ġflowers": 7936,
      "Ġimages": 7937,
      "Ġblank": 7938,
      "ĠEgypt": 7939,
      "Ġpage": 7940,
      "Substituting": 7941,
      "Ġgrass": 7942,
      "Ġaccurately": 7943,
      "Ġuniverse": 7944,
      "Ġhydrogen": 7945,
      "Ġsubstance": 7946,
      "trans": 7947,
      "world": 7948,
      "à¤®": 7949,
      "Ġabstract": 7950,
      "ĠTexas": 7951,
      "Ġindependently": 7952,
      "Ġcycl": 7953,
      "ohn": 7954,
      "Ġpages": 7955,
      "Ġchair": 7956,
      "Ġpregnancy": 7957,
      "Ġterminology": 7958,
      "CA": 7959,
      "ĠStre": 7960,
      "ociation": 7961,
      "Ġcombat": 7962,
      "ĠCE": 7963,
      "Ġmedications": 7964,
      "Ġ×Ĳ×": 7965,
      "tem": 7966,
      "Ġchromos": 7967,
      "ĠHan": 7968,
      "Ġillness": 7969,
      "Ġstandardized": 7970,
      "lined": 7971,
      "!\"": 7972,
      "Ġtoler": 7973,
      "ĠØ¬": 7974,
      "Ġdefe": 7975,
      "Ġconversion": 7976,
      "ĠDen": 7977,
      "ĠCanadian": 7978,
      "Ġevolving": 7979,
      "agers": 7980,
      "à®¤": 7981,
      "Ġdiscrimination": 7982,
      "ias": 7983,
      "Ġanatomical": 7984,
      "gl": 7985,
      "Ġhex": 7986,
      "reci": 7987,
      "Ġconstructed": 7988,
      "Ġcomputers": 7989,
      "Ġimagi": 7990,
      "Ġmamm": 7991,
      "ĠHebrew": 7992,
      "Ġsilver": 7993,
      "ĠSimilarly": 7994,
      "quar": 7995,
      "Ġrecording": 7996,
      "Ġsport": 7997,
      "Ġlawy": 7998,
      "Ġtun": 7999,
      "Ġdress": 8000,
      "ĠRet": 8001,
      "irty": 8002,
      "à¸±": 8003,
      "Ġprotected": 8004,
      "raq": 8005,
      "RS": 8006,
      "Ġreduces": 8007,
      "Ġcompli": 8008,
      "Ġentertainment": 8009,
      "Ġsam": 8010,
      "Ġordi": 8011,
      "hate": 8012,
      "Ġnotes": 8013,
      "-scale": 8014,
      "ĠDel": 8015,
      "à²¾": 8016,
      "tum": 8017,
      "ĠSub": 8018,
      "Ġprogramming": 8019,
      "ĠHindu": 8020,
      "Ġwithdraw": 8021,
      "Ġfis": 8022,
      "Ġsubstances": 8023,
      "Ġinflamm": 8024,
      "oma": 8025,
      "Ġtrop": 8026,
      "ontal": 8027,
      "Ġreveal": 8028,
      "Ġplatforms": 8029,
      "Ñĥ": 8030,
      "Ġautonomy": 8031,
      "Ġlimitation": 8032,
      "Ġinfections": 8033,
      "Ġvelocity": 8034,
      "Ġgeological": 8035,
      "Ġprovisions": 8036,
      "Ġreproductive": 8037,
      "ĠCollege": 8038,
      "ĠMel": 8039,
      "St": 8040,
      "à¬¾à¬": 8041,
      "Ġinterplay": 8042,
      "Ġhorse": 8043,
      "Ġcommer": 8044,
      "Ġbright": 8045,
      "-dimensional": 8046,
      ")/((-": 8047,
      "Ġseat": 8048,
      "!}": 8049,
      "Ġdiagnosis": 8050,
      "Ġinfer": 8051,
      "Ġcu": 8052,
      "Ġatoms": 8053,
      "Ġparab": 8054,
      "*Ċ": 8055,
      "ependent": 8056,
      "ĠJohns": 8057,
      "azz": 8058,
      "oys": 8059,
      "Ġsubjects": 8060,
      "Ġjoined": 8061,
      "Ġaddressed": 8062,
      "Ġready": 8063,
      "Ġmyself": 8064,
      "Ġforming": 8065,
      "Ġmigr": 8066,
      "Ġjudgment": 8067,
      "Ġnit": 8068,
      "Ġmillions": 8069,
      "Ġflows": 8070,
      "Ġbatter": 8071,
      "},\\": 8072,
      "Ġpool": 8073,
      "Ġnewspaper": 8074,
      "Ġsmooth": 8075,
      "Ġawareness": 8076,
      "itivity": 8077,
      "ĠSort": 8078,
      "Ġalgorithm": 8079,
      "ĠRichard": 8080,
      "Ġsuggested": 8081,
      "Ġvalidity": 8082,
      "Ġneural": 8083,
      "Ġrespir": 8084,
      "Ġmonarch": 8085,
      "Ġblocks": 8086,
      "Ġprovince": 8087,
      "Ġdiet": 8088,
      "Ġrectang": 8089,
      "Ġperimeter": 8090,
      "Ġseemed": 8091,
      "rian": 8092,
      "Ġdelivery": 8093,
      "Ġboss": 8094,
      "During": 8095,
      "Ġjurisdictions": 8096,
      "Ġanxiety": 8097,
      "isters": 8098,
      "ĠOtto": 8099,
      "Hi": 8100,
      "Ã§": 8101,
      "apse": 8102,
      "Ġgeographical": 8103,
      "Ġneighborhood": 8104,
      "ĠJeff": 8105,
      "Ġmovies": 8106,
      "mu": 8107,
      "eot": 8108,
      "ĠTH": 8109,
      "Ġtelling": 8110,
      "))/": 8111,
      "GHT": 8112,
      "ãĤĮ": 8113,
      "ĠChicago": 8114,
      "ala": 8115,
      "alities": 8116,
      "ĠPo": 8117,
      "ĠProcess": 8118,
      "à«ĭ": 8119,
      "Ġcategor": 8120,
      "Ġclarify": 8121,
      "Ġprivacy": 8122,
      "Ġreinfor": 8123,
      "Ġchannels": 8124,
      "Ġknows": 8125,
      "ĠChan": 8126,
      "ĠØŃ": 8127,
      "aya": 8128,
      "Ġoccupation": 8129,
      "anean": 8130,
      "-G": 8131,
      "road": 8132,
      "Ġna": 8133,
      "Ġsurgery": 8134,
      "Ġshelf": 8135,
      "aine": 8136,
      "Ġunknown": 8137,
      "Ġsymbols": 8138,
      "Ġreceiving": 8139,
      "Ġdiameter": 8140,
      "AP": 8141,
      "Ġly": 8142,
      "Ġsegments": 8143,
      "plied": 8144,
      "Ġ$|": 8145,
      "âĢľ": 8146,
      "Ġargued": 8147,
      "Ġapplies": 8148,
      "Rearrange": 8149,
      "Ġcoastal": 8150,
      "ĠMike": 8151,
      "Ġwear": 8152,
      "Some": 8153,
      "enger": 8154,
      "Ġyourself": 8155,
      "ĠMill": 8156,
      "à²¿à²": 8157,
      "Ġbreaks": 8158,
      "Ġastronom": 8159,
      "Ġperception": 8160,
      "{and": 8161,
      "ĠTw": 8162,
      "Ġexpanding": 8163,
      "Ġargue": 8164,
      "Ġexplos": 8165,
      "win": 8166,
      "Ġconsumers": 8167,
      "Ġalph": 8168,
      "ĠAlexander": 8169,
      "why": 8170,
      "aret": 8171,
      "Ġopinion": 8172,
      "ĠGroup": 8173,
      "iled": 8174,
      "tends": 8175,
      "Ġintermedi": 8176,
      "Ġ×ľ": 8177,
      "Ġagreed": 8178,
      "Ġsemi": 8179,
      "ĠFriday": 8180,
      "à¬¿à¬": 8181,
      "Ġsustainable": 8182,
      "pass": 8183,
      "mental": 8184,
      "Ġsupple": 8185,
      "ĠAmendment": 8186,
      "ums": 8187,
      "Ġoccurring": 8188,
      "Ġsuicide": 8189,
      "ĠNav": 8190,
      "áº": 8191,
      "ray": 8192,
      "gon": 8193,
      "Ġdating": 8194,
      "Ġles": 8195,
      "Ã±": 8196,
      "Ġvent": 8197,
      "Ġvocal": 8198,
      "char": 8199,
      "Ġcarefully": 8200,
      "Ġorigins": 8201,
      "Ġimmigr": 8202,
      "Ġcycles": 8203,
      "Ġtravels": 8204,
      "Ġrigid": 8205,
      "ĠBefore": 8206,
      "_eq": 8207,
      "Ġconsent": 8208,
      "Ġvan": 8209,
      "Ġinstall": 8210,
      "ĠSecret": 8211,
      "onsist": 8212,
      "Ġpartial": 8213,
      "/less": 8214,
      "Ġwidth": 8215,
      "ĠDepartment": 8216,
      "Ġauto": 8217,
      "Ġimmigration": 8218,
      "ĠPan": 8219,
      "Ġweigh": 8220,
      "Ġpian": 8221,
      "Ġcombining": 8222,
      "Ġreserv": 8223,
      "onomic": 8224,
      "Ġyouth": 8225,
      "Ġcaught": 8226,
      "Ġmainly": 8227,
      "Ġoptimization": 8228,
      "ĠVer": 8229,
      "unately": 8230,
      "ĠAre": 8231,
      "ava": 8232,
      "ĠJackson": 8233,
      "Ġindex": 8234,
      "Ġrhyth": 8235,
      "Ġdefine": 8236,
      "Ġdifficulties": 8237,
      "ĠRoyal": 8238,
      "Ġort": 8239,
      "Ġsurve": 8240,
      "fully": 8241,
      "Ġtends": 8242,
      "iac": 8243,
      "Ġreson": 8244,
      "Ġpyr": 8245,
      "Ġexcessive": 8246,
      "Ġportr": 8247,
      "Sort": 8248,
      "NP": 8249,
      "Ġboat": 8250,
      "aver": 8251,
      "ĠChristmas": 8252,
      "isc": 8253,
      "Ġthor": 8254,
      "Ġsolely": 8255,
      "Ġmidpoint": 8256,
      "Ġgift": 8257,
      "Ġfores": 8258,
      "ker": 8259,
      "fill": 8260,
      "Ġpremi": 8261,
      "ĠAcadem": 8262,
      "Ġexempl": 8263,
      "Ġnerv": 8264,
      "Ġgal": 8265,
      "Ġselling": 8266,
      "Ġobserving": 8267,
      "à«ĩàª": 8268,
      "hia": 8269,
      "Ġduty": 8270,
      "Ġrepair": 8271,
      "anks": 8272,
      "erman": 8273,
      "athy": 8274,
      "Ġviolent": 8275,
      "ĠHel": 8276,
      "Ġmortality": 8277,
      "Ġglucose": 8278,
      "Ġintensity": 8279,
      "Ġfeedback": 8280,
      "azi": 8281,
      "fall": 8282,
      "Ġequilibrium": 8283,
      "Ġviral": 8284,
      ")\\),": 8285,
      "Ġarc": 8286,
      "gun": 8287,
      "cium": 8288,
      "cip": 8289,
      "Ġbeneficial": 8290,
      "Ġfavorite": 8291,
      "Ġagency": 8292,
      "ĠCam": 8293,
      "tage": 8294,
      "Ġperspectives": 8295,
      "Ġstream": 8296,
      "ĠIrish": 8297,
      "gent": 8298,
      "from": 8299,
      "Ġagents": 8300,
      "Ġresc": 8301,
      "iterr": 8302,
      "Ġneutral": 8303,
      "Ġdirections": 8304,
      "isto": 8305,
      "Ġabilities": 8306,
      "rows": 8307,
      "ĠEgyp": 8308,
      "Ġdifferential": 8309,
      "Ġinterior": 8310,
      "ĠWal": 8311,
      "trad": 8312,
      "unders": 8313,
      "}}Ċ": 8314,
      "Ġescap": 8315,
      "Ġben": 8316,
      "nings": 8317,
      "Ġspin": 8318,
      "ÛĴ": 8319,
      "Not": 8320,
      "bility": 8321,
      "avery": 8322,
      "Ġlungs": 8323,
      "rin": 8324,
      "Ġenabled": 8325,
      "Ġdates": 8326,
      "vis": 8327,
      "thy": 8328,
      "Ġchose": 8329,
      "ĠAngeles": 8330,
      "Ġconnecting": 8331,
      "Ġpreferred": 8332,
      "Ġdevi": 8333,
      "Ġimmun": 8334,
      "Ġpolitic": 8335,
      "Ġmachines": 8336,
      "ĠCub": 8337,
      "ĠSunday": 8338,
      "Ġadjacent": 8339,
      "Ġobligations": 8340,
      "Ġmuscles": 8341,
      "Ġcorrel": 8342,
      "des": 8343,
      "iterranean": 8344,
      "Ġsecure": 8345,
      "Ġgh": 8346,
      "Ġinspired": 8347,
      "Ġannounced": 8348,
      "azon": 8349,
      "ĠØ±Ø§": 8350,
      "ĠVirgin": 8351,
      "Ø±Ø¯": 8352,
      "mo": 8353,
      "ologists": 8354,
      "Ġelections": 8355,
      "ãĥ«": 8356,
      "izations": 8357,
      "Ġdiscovers": 8358,
      "Ġproposal": 8359,
      "rupt": 8360,
      "aks": 8361,
      "Ġcontribution": 8362,
      "???Ċ": 8363,
      "Ġadvancement": 8364,
      "They": 8365,
      "Ġarbit": 8366,
      "Ġobservations": 8367,
      "ositive": 8368,
      "Ġsharing": 8369,
      "ĠDan": 8370,
      "Ġbirthday": 8371,
      "Ġflag": 8372,
      "Ġsystemic": 8373,
      "Ġclus": 8374,
      "Ġdestruction": 8375,
      "avor": 8376,
      "Ġfolk": 8377,
      "ÄĻ": 8378,
      "Ġgeometry": 8379,
      "Ġfossil": 8380,
      "versely": 8381,
      "Ġdisput": 8382,
      "MP": 8383,
      "hrop": 8384,
      "ĠAsh": 8385,
      "Ġenzyme": 8386,
      "aylor": 8387,
      "Ġmedication": 8388,
      "Ġranges": 8389,
      "ĠÛĮ": 8390,
      "Ġtum": 8391,
      "ĠEs": 8392,
      "Ġdepartment": 8393,
      "Ġcompl": 8394,
      "-R": 8395,
      "Ġsharp": 8396,
      "Ġspring": 8397,
      "iency": 8398,
      "Ġevaluating": 8399,
      "Ġdedicated": 8400,
      "length": 8401,
      "ĠTod": 8402,
      "Ġstom": 8403,
      "-be": 8404,
      "big": 8405,
      "DP": 8406,
      "Ġcamera": 8407,
      "itable": 8408,
      "Ġsedi": 8409,
      "Ġaccounting": 8410,
      "{C": 8411,
      "Ġflour": 8412,
      "Ġpositioned": 8413,
      "Ġtoxic": 8414,
      "EC": 8415,
      "Ġdescending": 8416,
      "à¯Ī": 8417,
      "Ġhunting": 8418,
      "Ġdecor": 8419,
      "Ġconsistency": 8420,
      "à³ģ": 8421,
      "ressional": 8422,
      "Ġdrives": 8423,
      "ĠLake": 8424,
      "ĠMonday": 8425,
      "ador": 8426,
      "Ġcrash": 8427,
      "Ġellip": 8428,
      "Ġextin": 8429,
      "Ġfib": 8430,
      "Ġelectricity": 8431,
      "Ġrab": 8432,
      "ÛĮØ¯": 8433,
      "Ġbike": 8434,
      "ĠMartin": 8435,
      "Ġreceives": 8436,
      "Ġsolving": 8437,
      "Ġdeaths": 8438,
      "ĠKar": 8439,
      "Ġilleg": 8440,
      "Ġimprovement": 8441,
      "Ġsimplifies": 8442,
      "Ġdomains": 8443,
      "Ġpunishment": 8444,
      "Ġemphasized": 8445,
      "Ġelabor": 8446,
      "ologist": 8447,
      "ĠâĢĺ": 8448,
      "Ġarres": 8449,
      "Ġcompromise": 8450,
      "Ġdys": 8451,
      "Ġuncertainty": 8452,
      "ĠIII": 8453,
      "Ġseverity": 8454,
      "Ġpreserving": 8455,
      "Ġpopulous": 8456,
      "Ġflo": 8457,
      "Ġoversight": 8458,
      "Ġprepared": 8459,
      "Ġpas": 8460,
      "ivide": 8461,
      "Ġintersect": 8462,
      "ÙĩØ§": 8463,
      "ĠLit": 8464,
      "icy": 8465,
      "iance": 8466,
      "zh": 8467,
      "Ġhub": 8468,
      "Ġversions": 8469,
      "Ġafford": 8470,
      "Ġhighl": 8471,
      "Ġparliament": 8472,
      "Ġinitiatives": 8473,
      "ĠHaw": 8474,
      "Ġdestroyed": 8475,
      "Ġfashion": 8476,
      "Ñı": 8477,
      "Ġobtained": 8478,
      "ĠProv": 8479,
      "Ġforg": 8480,
      "ushing": 8481,
      "Ġtransp": 8482,
      "Ġlink": 8483,
      "Ġmodulo": 8484,
      "Ġstrange": 8485,
      "Ġaggressive": 8486,
      "Ġfoods": 8487,
      "Ġvessels": 8488,
      "UT": 8489,
      "Ġsurvey": 8490,
      "Ġdefensive": 8491,
      "Ġdrinking": 8492,
      "Ġcentered": 8493,
      "Ġperm": 8494,
      "Ġarrive": 8495,
      "ĠFactor": 8496,
      ">.ĊĊ": 8497,
      "Ġtone": 8498,
      "emic": 8499,
      "ĠHarry": 8500,
      "Ġcausal": 8501,
      "ano": 8502,
      "Ġni": 8503,
      "Ġcorrelation": 8504,
      "rich": 8505,
      "ĠRound": 8506,
      "ĠFlor": 8507,
      "Ġsteel": 8508,
      "normal": 8509,
      "grad": 8510,
      "Ġteachers": 8511,
      "Ġdefinitions": 8512,
      "trum": 8513,
      "Ġcontinuity": 8514,
      ")=\\": 8515,
      "hag": 8516,
      "Ġweb": 8517,
      "ware": 8518,
      "Ġingred": 8519,
      "points": 8520,
      "Ġkick": 8521,
      "Ġreaches": 8522,
      "ĠFact": 8523,
      "ĠWell": 8524,
      "Ġadaptations": 8525,
      "qquad": 8526,
      "Ġaxis": 8527,
      "ĠIraq": 8528,
      "Ø§Øª": 8529,
      "Ġmos": 8530,
      "Ġisolated": 8531,
      "Ġzone": 8532,
      "Ġantic": 8533,
      "à²¾à²": 8534,
      "Ġwouldn": 8535,
      "tel": 8536,
      "ighter": 8537,
      "hetic": 8538,
      "uesday": 8539,
      "à§ģ": 8540,
      "nty": 8541,
      "echn": 8542,
      "lers": 8543,
      "ĠSur": 8544,
      "Ġpresentation": 8545,
      "aked": 8546,
      "ĠCivil": 8547,
      "Ġprecedent": 8548,
      "zo": 8549,
      "Ġhouses": 8550,
      "Ġmagnitude": 8551,
      "embly": 8552,
      "icious": 8553,
      "ĠInternet": 8554,
      "Ġnoise": 8555,
      "Ġuncons": 8556,
      "ildren": 8557,
      "Ġsod": 8558,
      "ĠJac": 8559,
      "Ġpsychology": 8560,
      "Ġtheoretically": 8561,
      "mat": 8562,
      "rid": 8563,
      "ĠPut": 8564,
      "Ġequality": 8565,
      "Ġcontainer": 8566,
      "ortion": 8567,
      "Ġcompute": 8568,
      "List": 8569,
      "ses": 8570,
      "aire": 8571,
      "ĠStreet": 8572,
      "Ġrent": 8573,
      "Additionally": 8574,
      "ĠIndones": 8575,
      "ĠJust": 8576,
      "RIGHT": 8577,
      "{u": 8578,
      "Ġorb": 8579,
      "ĠJose": 8580,
      "Ġacceptance": 8581,
      "iov": 8582,
      "Ġnoun": 8583,
      "ĠSet": 8584,
      "Ġvertical": 8585,
      "Ġbreaking": 8586,
      "ĠÂ£": 8587,
      "Ãł": 8588,
      "Ġcircuit": 8589,
      "Ġelder": 8590,
      "×Ļ×Ŀ": 8591,
      "ĠArch": 8592,
      "Ġclaimed": 8593,
      "urday": 8594,
      "Ġunn": 8595,
      "umes": 8596,
      "Ġstorm": 8597,
      "Ġaudiences": 8598,
      "ĠSus": 8599,
      "-H": 8600,
      "Ġsuppor": 8601,
      "idents": 8602,
      "mented": 8603,
      "Ġrobust": 8604,
      "ĠMediterranean": 8605,
      "roll": 8606,
      "clusion": 8607,
      "Ġsymmetry": 8608,
      "ela": 8609,
      "Ġtreating": 8610,
      "but": 8611,
      "+c": 8612,
      "Ġrecommended": 8613,
      "Ġmutations": 8614,
      "Ġagreements": 8615,
      "Ġbias": 8616,
      "Ġsoul": 8617,
      "max": 8618,
      "adow": 8619,
      "Ġmeasuring": 8620,
      "Ġpopularity": 8621,
      "iant": 8622,
      "Ġdisag": 8623,
      "onial": 8624,
      "Ġkeeps": 8625,
      "ĠCompany": 8626,
      "ĠForm": 8627,
      "ĠCenter": 8628,
      "rel": 8629,
      "Ġinsights": 8630,
      "Ġnervous": 8631,
      "Ġnumerator": 8632,
      "-F": 8633,
      "à¥Ī": 8634,
      "Ġcoi": 8635,
      "Ġbear": 8636,
      "Ġsacr": 8637,
      "à¸µ": 8638,
      "hodox": 8639,
      "\\\\": 8640,
      "ĠCup": 8641,
      "ĠÚ¯": 8642,
      "Ġunlike": 8643,
      "Ġwire": 8644,
      "ĠRather": 8645,
      "Title": 8646,
      "Ġguard": 8647,
      "Ġnotation": 8648,
      "Ġsatisfied": 8649,
      "ĠBrown": 8650,
      "à°°": 8651,
      "Ġplastic": 8652,
      "Ġcinem": 8653,
      "-by": 8654,
      "Ġcompr": 8655,
      "Ġidentifying": 8656,
      "ĠFederal": 8657,
      "Ġconfid": 8658,
      "ignty": 8659,
      "Ġhole": 8660,
      "cot": 8661,
      ".âĢĿĊĊ": 8662,
      "ĠEU": 8663,
      "Ġspher": 8664,
      "step": 8665,
      "ompl": 8666,
      "Delta": 8667,
      "ĠJohnson": 8668,
      "Ġarbitr": 8669,
      "nces": 8670,
      "Ġrecr": 8671,
      "div": 8672,
      "Ġbonds": 8673,
      "Ġwealthy": 8674,
      "Ġdies": 8675,
      "Do": 8676,
      "Ġborrow": 8677,
      "Ġacute": 8678,
      "Ġdesigns": 8679,
      "Ġcontained": 8680,
      "Ġslavery": 8681,
      "Ġcovers": 8682,
      "Ġelected": 8683,
      "Ġrid": 8684,
      "Ġflexible": 8685,
      "Ġ\\{": 8686,
      "Ġride": 8687,
      "aria": 8688,
      "Ġcoins": 8689,
      "olate": 8690,
      "elly": 8691,
      "ĠRock": 8692,
      "ĠEv": 8693,
      "Ġenable": 8694,
      "\\,": 8695,
      "gamma": 8696,
      "Ġconsciousness": 8697,
      "oples": 8698,
      "elfare": 8699,
      "ĠØ¨Ø§": 8700,
      "})^": 8701,
      "ĠIsrael": 8702,
      "Ġsulf": 8703,
      "brid": 8704,
      "ĠJes": 8705,
      "Ãº": 8706,
      "Ġcopper": 8707,
      "Ġtruck": 8708,
      "Ġwet": 8709,
      "à¨¤": 8710,
      "phone": 8711,
      "ĠSaint": 8712,
      "Ġspoken": 8713,
      "ĠTuesday": 8714,
      "ĠMatt": 8715,
      "-x": 8716,
      "roph": 8717,
      "Ġsensitive": 8718,
      "aired": 8719,
      "ĠServ": 8720,
      "Ġ×©": 8721,
      "Ġcontrols": 8722,
      "che": 8723,
      "anting": 8724,
      "Ġelectoral": 8725,
      "establish": 8726,
      "Ġah": 8727,
      "ĠØ§Ø³Øª": 8728,
      "puts": 8729,
      "Ġanalytical": 8730,
      "Ġunusual": 8731,
      "))?": 8732,
      "Ġbutter": 8733,
      "ĠUnder": 8734,
      "ĠSocial": 8735,
      "usions": 8736,
      "Ġtactical": 8737,
      "ĠMinister": 8738,
      "Ġconsiderable": 8739,
      "Ġcod": 8740,
      "Ġmetabol": 8741,
      "Ġos": 8742,
      "Ġcerti": 8743,
      "Ġcandidate": 8744,
      "Total": 8745,
      "Ġrepublic": 8746,
      "Ġincorporated": 8747,
      "ĠInc": 8748,
      "Ġble": 8749,
      "umptions": 8750,
      "Ġcarrying": 8751,
      "Ġisolation": 8752,
      "Ġcalling": 8753,
      "Ġschem": 8754,
      "Context": 8755,
      "Ġentry": 8756,
      "uy": 8757,
      "Ġbreast": 8758,
      "amid": 8759,
      "*}ĊĊ": 8760,
      "orp": 8761,
      "Ġfinished": 8762,
      "quare": 8763,
      "ogle": 8764,
      "aka": 8765,
      "Ġopens": 8766,
      "tell": 8767,
      "?ĊĊĊ": 8768,
      "odynam": 8769,
      "Ġreporting": 8770,
      "Ġsimpler": 8771,
      "ĠTranslate": 8772,
      "ett": 8773,
      "Ġpictures": 8774,
      "ĠOur": 8775,
      "Ġwebsite": 8776,
      "Ġsovereignty": 8777,
      "ours": 8778,
      "-specific": 8779,
      "cover": 8780,
      "_LE": 8781,
      "add": 8782,
      "Ġexpertise": 8783,
      "Ġideological": 8784,
      "orry": 8785,
      ".M": 8786,
      "Ġcertainty": 8787,
      "anny": 8788,
      "hed": 8789,
      "Ġacids": 8790,
      "gry": 8791,
      "Ġtiny": 8792,
      "ĠChoose": 8793,
      "Ġleague": 8794,
      "Ġparticle": 8795,
      "Ġlos": 8796,
      "nis": 8797,
      "Ġvitamin": 8798,
      "Who": 8799,
      "Ġpreserve": 8800,
      "ĠEll": 8801,
      "ĠProf": 8802,
      "Ġfrustr": 8803,
      "Ġmodeling": 8804,
      "Ġperhaps": 8805,
      "ĠRem": 8806,
      "Ġdropped": 8807,
      "ĠIm": 8808,
      "Ġinconsist": 8809,
      "Ġcharged": 8810,
      "},Ċ": 8811,
      "Ġangry": 8812,
      "Ġcalcium": 8813,
      "Ġcoordinated": 8814,
      "Ġevident": 8815,
      "Ġconstraint": 8816,
      "Ġcash": 8817,
      "Ġgravity": 8818,
      "Ġadvertising": 8819,
      "_LEFT": 8820,
      "Ġà¤Ĩ": 8821,
      "Ġlosses": 8822,
      "}_": 8823,
      "Ġbinary": 8824,
      "Ġconverted": 8825,
      "ĠNOT": 8826,
      "LC": 8827,
      "Ġvehicles": 8828,
      "Ġautomatically": 8829,
      "Ġpione": 8830,
      "Ġworried": 8831,
      "Ġbalancing": 8832,
      "Ġrelax": 8833,
      "ypoth": 8834,
      "Ġdivisors": 8835,
      "Ġshapes": 8836,
      "Ġagriculture": 8837,
      "Ġintention": 8838,
      "Ġscores": 8839,
      "Ġemployee": 8840,
      "tative": 8841,
      "Ġmoderate": 8842,
      "Ġhidden": 8843,
      "itchen": 8844,
      "Ġbis": 8845,
      "Ġrenew": 8846,
      "{N": 8847,
      "Ġestate": 8848,
      ")+": 8849,
      "Ġexped": 8850,
      "acc": 8851,
      "fbox": 8852,
      "$$Ċ": 8853,
      "Ġretr": 8854,
      "Ġstrip": 8855,
      "auty": 8856,
      "agan": 8857,
      "Ġgravit": 8858,
      "Ġarts": 8859,
      "ĠVen": 8860,
      "Ġspecified": 8861,
      "{P": 8862,
      "onia": 8863,
      "Ġidentification": 8864,
      "ĠPassage": 8865,
      "Ġtigh": 8866,
      "Ġborders": 8867,
      "face": 8868,
      "Ġbelieves": 8869,
      "ĠBre": 8870,
      "Ġelevated": 8871,
      "apor": 8872,
      "Ġhomes": 8873,
      "Ġlegally": 8874,
      "Ġillustrates": 8875,
      "Ġexecution": 8876,
      "ĠRel": 8877,
      "ĠThree": 8878,
      "Ġbeat": 8879,
      "aci": 8880,
      "azing": 8881,
      "wan": 8882,
      "Ġlongest": 8883,
      "ĠMah": 8884,
      "Ġassumptions": 8885,
      "IT": 8886,
      "Ġnick": 8887,
      "ĠØ£": 8888,
      "ĠAcademy": 8889,
      "-pro": 8890,
      "Ġguidelines": 8891,
      "Ġemotions": 8892,
      "Ġvar": 8893,
      "Ġlisten": 8894,
      "Ġcomparisons": 8895,
      "Ġactors": 8896,
      "ãģ¾": 8897,
      "']Ċ": 8898,
      "Ġprocedure": 8899,
      "Ġvoc": 8900,
      "ĠJess": 8901,
      "non": 8902,
      "Ġ@": 8903,
      "Ġmechanics": 8904,
      "Ġdense": 8905,
      "gia": 8906,
      "!Ċ": 8907,
      "!}{": 8908,
      "ĠEmperor": 8909,
      "partial": 8910,
      "Ġplatform": 8911,
      "Ġmagazine": 8912,
      "Ġblow": 8913,
      "Ġfab": 8914,
      "Ġmountains": 8915,
      "Ġ[-": 8916,
      "Ġequals": 8917,
      ".A": 8918,
      "Ġloyal": 8919,
      "Ġfung": 8920,
      "Ġkills": 8921,
      "Ġconve": 8922,
      "Ġloved": 8923,
      "ĠInformation": 8924,
      "Ġsupplies": 8925,
      "Ġdivisions": 8926,
      "àµĨ": 8927,
      "Ġneck": 8928,
      "ĠStar": 8929,
      "ativity": 8930,
      "bar": 8931,
      "Ġprint": 8932,
      "Ġtalks": 8933,
      "ypothesis": 8934,
      "Ġattitudes": 8935,
      "urable": 8936,
      "-and": 8937,
      "ĠNick": 8938,
      "Ġcollected": 8939,
      "Ġoxid": 8940,
      "ibl": 8941,
      "Ġpoem": 8942,
      "elle": 8943,
      "à¹Ģà¸": 8944,
      "ario": 8945,
      "ulating": 8946,
      "dx": 8947,
      "Ġestimates": 8948,
      "Ġcommission": 8949,
      "Ġsingular": 8950,
      "Sum": 8951,
      "Ġstret": 8952,
      "ĠModern": 8953,
      "{i": 8954,
      "Ġdecreases": 8955,
      "Ġproductivity": 8956,
      "Ġalgorithms": 8957,
      "Ġshaping": 8958,
      "ĠAssociation": 8959,
      "ĠØ¨Ø±": 8960,
      "terior": 8961,
      "à°²": 8962,
      "uj": 8963,
      "Ġemerge": 8964,
      "Ġartificial": 8965,
      "tons": 8966,
      "ĠÐ¿": 8967,
      "Ġenters": 8968,
      "Ġseasonal": 8969,
      "Ġconcentrated": 8970,
      "Three": 8971,
      "Ġmarine": 8972,
      "Round": 8973,
      "Ġelectrons": 8974,
      "US": 8975,
      "à¦¤": 8976,
      "ĠConstitution": 8977,
      "Ġships": 8978,
      "ĠPak": 8979,
      "Ġdifficulty": 8980,
      "Ġnur": 8981,
      "aer": 8982,
      "Ġneur": 8983,
      "Ġpeoples": 8984,
      "Ġassigned": 8985,
      "Ġsatell": 8986,
      "Ġencounter": 8987,
      "matic": 8988,
      "Ġmobile": 8989,
      "ĠMass": 8990,
      "Ġparameter": 8991,
[...]
